{
  "version": "1.0",
  "truncation": {
    "direction": "Right",
    "max_length": 512,
    "strategy": "LongestFirst",
    "stride": 0
  },
  "padding": null,
  "added_tokens": [
    {
      "id": 0,
      "content": "<pad>",
      "single_word": false,
      "lstrip": false,
      "rstrip": false,
      "normalized": false,
      "special": true
    },
    {
      "id": 1,
      "content": "</s>",
      "single_word": false,
      "lstrip": false,
      "rstrip": false,
      "normalized": false,
      "special": true
    },
    {
      "id": 2,
      "content": "<unk>",
      "single_word": false,
      "lstrip": false,
      "rstrip": false,
      "normalized": false,
      "special": true
    },
    {
      "id": 32000,
      "content": "<extra_id_0>",
      "single_word": false,
      "lstrip": false,
      "rstrip": false,
      "normalized": false,
      "special": true
    },
    {
      "id": 32001,
      "content": "<extra_id_1>",
      "single_word": false,
      "lstrip": false,
      "rstrip": false,
      "normalized": false,
      "special": true
    },
    {
      "id": 32002,
      "content": "<extra_id_2>",
      "single_word": false,
      "lstrip": false,
      "rstrip": false,
      "normalized": false,
      "special": true
    },
    {
      "id": 32003,
      "content": "<extra_id_3>",
      "single_word": false,
      "lstrip": false,
      "rstrip": false,
      "normalized": false,
      "special": true
    },
    {
      "id": 32004,
      "content": "<extra_id_4>",
      "single_word": false,
      "lstrip": false,
      "rstrip": false,
      "normalized": false,
      "special": true
    },
    {
      "id": 32005,
      "content": "<extra_id_5>",
      "single_word": false,
      "lstrip": false,
      "rstrip": false,
      "normalized": false,
      "special": true
    },
    {
      "id": 32006,
      "content": "<extra_id_6>",
      "single_word": false,
      "lstrip": false,
      "rstrip": false,
      "normalized": false,
      "special": true
    },
    {
      "id": 32007,
      "content": "<extra_id_7>",
      "single_word": false,
      "lstrip": false,
      "rstrip": false,
      "normalized": false,
      "special": true
    },
    {
      "id": 32008,
      "content": "<extra_id_8>",
      "single_word": false,
      "lstrip": false,
      "rstrip": false,
      "normalized": false,
      "special": true
    },
    {
      "id": 32009,
      "content": "<extra_id_9>",
      "single_word": false,
      "lstrip": false,
      "rstrip": false,
      "normalized": false,
      "special": true
    },
    {
      "id": 32010,
      "content": "<extra_id_10>",
      "single_word": false,
      "lstrip": false,
      "rstrip": false,
      "normalized": false,
      "special": true
    },
    {
      "id": 32011,
      "content": "<extra_id_11>",
      "single_word": false,
      "lstrip": false,
      "rstrip": false,
      "normalized": false,
      "special": true
    },
    {
      "id": 32012,
      "content": "<extra_id_12>",
      "single_word": false,
      "lstrip": false,
      "rstrip": false,
      "normalized": false,
      "special": true
    },
    {
      "id": 32013,
      "content": "<extra_id_13>",
      "single_word": false,
      "lstrip": false,
      "rstrip": false,
      "normalized": false,
      "special": true
    },
    {
      "id": 32014,
      "content": "<extra_id_14>",
      "single_word": false,
      "lstrip": false,
      "rstrip": false,
      "normalized": false,
      "special": true
    },
    {
      "id": 32015,
      "content": "<extra_id_15>",
      "single_word": false,
      "lstrip": false,
      "rstrip": false,
      "normalized": false,
      "special": true
    },
    {
      "id": 32016,
      "content": "<extra_id_16>",
      "single_word": false,
      "lstrip": false,
      "rstrip": false,
      "normalized": false,
      "special": true
    },
    {
      "id": 32017,
      "content": "<extra_id_17>",
      "single_word": false,
      "lstrip": false,
      "rstrip": false,
      "normalized": false,
      "special": true
    },
    {
      "id": 32018,
      "content": "<extra_id_18>",
      "single_word": false,
      "lstrip": false,
      "rstrip": false,
      "normalized": false,
      "special": true
    },
    {
      "id": 32019,
      "content": "<extra_id_19>",
      "single_word": false,
      "lstrip": false,
      "rstrip": false,
      "normalized": false,
      "special": true
    },
    {
      "id": 32020,
      "content": "<extra_id_20>",
      "single_word": false,
      "lstrip": false,
      "rstrip": false,
      "normalized": false,
      "special": true
    },
    {
      "id": 32021,
      "content": "<extra_id_21>",
      "single_word": false,
      "lstrip": false,
      "rstrip": false,
      "normalized": false,
      "special": true
    },
    {
      "id": 32022,
      "content": "<extra_id_22>",
      "single_word": false,
      "lstrip": false,
      "rstrip": false,
      "normalized": false,
      "special": true
    },
    {
      "id": 32023,
      "content": "<extra_id_23>",
      "single_word": false,
      "lstrip": false,
      "rstrip": false,
      "normalized": false,
      "special": true
    },
    {
      "id": 32024,
      "content": "<extra_id_24>",
      "single_word": false,
      "lstrip": false,
      "rstrip": false,
      "normalized": false,
      "special": true
    },
    {
      "id": 32025,
      "content": "<extra_id_25>",
      "single_word": false,
      "lstrip": false,
      "rstrip": false,
      "normalized": false,
      "special": true
    },
    {
      "id": 32026,
      "content": "<extra_id_26>",
      "single_word": false,
      "lstrip": false,
      "rstrip": false,
      "normalized": false,
      "special": true
    },
    {
      "id": 32027,
      "content": "<extra_id_27>",
      "single_word": false,
      "lstrip": false,
      "rstrip": false,
      "normalized": false,
      "special": true
    },
    {
      "id": 32028,
      "content": "<extra_id_28>",
      "single_word": false,
      "lstrip": false,
      "rstrip": false,
      "normalized": false,
      "special": true
    },
    {
      "id": 32029,
      "content": "<extra_id_29>",
      "single_word": false,
      "lstrip": false,
      "rstrip": false,
      "normalized": false,
      "special": true
    },
    {
      "id": 32030,
      "content": "<extra_id_30>",
      "single_word": false,
      "lstrip": false,
      "rstrip": false,
      "normalized": false,
      "special": true
    },
    {
      "id": 32031,
      "content": "<extra_id_31>",
      "single_word": false,
      "lstrip": false,
      "rstrip": false,
      "normalized": false,
      "special": true
    },
    {
      "id": 32032,
      "content": "<extra_id_32>",
      "single_word": false,
      "lstrip": false,
      "rstrip": false,
      "normalized": false,
      "special": true
    },
    {
      "id": 32033,
      "content": "<extra_id_33>",
      "single_word": false,
      "lstrip": false,
      "rstrip": false,
      "normalized": false,
      "special": true
    },
    {
      "id": 32034,
      "content": "<extra_id_34>",
      "single_word": false,
      "lstrip": false,
      "rstrip": false,
      "normalized": false,
      "special": true
    },
    {
      "id": 32035,
      "content": "<extra_id_35>",
      "single_word": false,
      "lstrip": false,
      "rstrip": false,
      "normalized": false,
      "special": true
    },
    {
      "id": 32036,
      "content": "<extra_id_36>",
      "single_word": false,
      "lstrip": false,
      "rstrip": false,
      "normalized": false,
      "special": true
    },
    {
      "id": 32037,
      "content": "<extra_id_37>",
      "single_word": false,
      "lstrip": false,
      "rstrip": false,
      "normalized": false,
      "special": true
    },
    {
      "id": 32038,
      "content": "<extra_id_38>",
      "single_word": false,
      "lstrip": false,
      "rstrip": false,
      "normalized": false,
      "special": true
    },
    {
      "id": 32039,
      "content": "<extra_id_39>",
      "single_word": false,
      "lstrip": false,
      "rstrip": false,
      "normalized": false,
      "special": true
    },
    {
      "id": 32040,
      "content": "<extra_id_40>",
      "single_word": false,
      "lstrip": false,
      "rstrip": false,
      "normalized": false,
      "special": true
    },
    {
      "id": 32041,
      "content": "<extra_id_41>",
      "single_word": false,
      "lstrip": false,
      "rstrip": false,
      "normalized": false,
      "special": true
    },
    {
      "id": 32042,
      "content": "<extra_id_42>",
      "single_word": false,
      "lstrip": false,
      "rstrip": false,
      "normalized": false,
      "special": true
    },
    {
      "id": 32043,
      "content": "<extra_id_43>",
      "single_word": false,
      "lstrip": false,
      "rstrip": false,
      "normalized": false,
      "special": true
    },
    {
      "id": 32044,
      "content": "<extra_id_44>",
      "single_word": false,
      "lstrip": false,
      "rstrip": false,
      "normalized": false,
      "special": true
    },
    {
      "id": 32045,
      "content": "<extra_id_45>",
      "single_word": false,
      "lstrip": false,
      "rstrip": false,
      "normalized": false,
      "special": true
    },
    {
      "id": 32046,
      "content": "<extra_id_46>",
      "single_word": false,
      "lstrip": false,
      "rstrip": false,
      "normalized": false,
      "special": true
    },
    {
      "id": 32047,
      "content": "<extra_id_47>",
      "single_word": false,
      "lstrip": false,
      "rstrip": false,
      "normalized": false,
      "special": true
    },
    {
      "id": 32048,
      "content": "<extra_id_48>",
      "single_word": false,
      "lstrip": false,
      "rstrip": false,
      "normalized": false,
      "special": true
    },
    {
      "id": 32049,
      "content": "<extra_id_49>",
      "single_word": false,
      "lstrip": false,
      "rstrip": false,
      "normalized": false,
      "special": true
    },
    {
      "id": 32050,
      "content": "<extra_id_50>",
      "single_word": false,
      "lstrip": false,
      "rstrip": false,
      "normalized": false,
      "special": true
    },
    {
      "id": 32051,
      "content": "<extra_id_51>",
      "single_word": false,
      "lstrip": false,
      "rstrip": false,
      "normalized": false,
      "special": true
    },
    {
      "id": 32052,
      "content": "<extra_id_52>",
      "single_word": false,
      "lstrip": false,
      "rstrip": false,
      "normalized": false,
      "special": true
    },
    {
      "id": 32053,
      "content": "<extra_id_53>",
      "single_word": false,
      "lstrip": false,
      "rstrip": false,
      "normalized": false,
      "special": true
    },
    {
      "id": 32054,
      "content": "<extra_id_54>",
      "single_word": false,
      "lstrip": false,
      "rstrip": false,
      "normalized": false,
      "special": true
    },
    {
      "id": 32055,
      "content": "<extra_id_55>",
      "single_word": false,
      "lstrip": false,
      "rstrip": false,
      "normalized": false,
      "special": true
    },
    {
      "id": 32056,
      "content": "<extra_id_56>",
      "single_word": false,
      "lstrip": false,
      "rstrip": false,
      "normalized": false,
      "special": true
    },
    {
      "id": 32057,
      "content": "<extra_id_57>",
      "single_word": false,
      "lstrip": false,
      "rstrip": false,
      "normalized": false,
      "special": true
    },
    {
      "id": 32058,
      "content": "<extra_id_58>",
      "single_word": false,
      "lstrip": false,
      "rstrip": false,
      "normalized": false,
      "special": true
    },
    {
      "id": 32059,
      "content": "<extra_id_59>",
      "single_word": false,
      "lstrip": false,
      "rstrip": false,
      "normalized": false,
      "special": true
    },
    {
      "id": 32060,
      "content": "<extra_id_60>",
      "single_word": false,
      "lstrip": false,
      "rstrip": false,
      "normalized": false,
      "special": true
    },
    {
      "id": 32061,
      "content": "<extra_id_61>",
      "single_word": false,
      "lstrip": false,
      "rstrip": false,
      "normalized": false,
      "special": true
    },
    {
      "id": 32062,
      "content": "<extra_id_62>",
      "single_word": false,
      "lstrip": false,
      "rstrip": false,
      "normalized": false,
      "special": true
    },
    {
      "id": 32063,
      "content": "<extra_id_63>",
      "single_word": false,
      "lstrip": false,
      "rstrip": false,
      "normalized": false,
      "special": true
    },
    {
      "id": 32064,
      "content": "<extra_id_64>",
      "single_word": false,
      "lstrip": false,
      "rstrip": false,
      "normalized": false,
      "special": true
    },
    {
      "id": 32065,
      "content": "<extra_id_65>",
      "single_word": false,
      "lstrip": false,
      "rstrip": false,
      "normalized": false,
      "special": true
    },
    {
      "id": 32066,
      "content": "<extra_id_66>",
      "single_word": false,
      "lstrip": false,
      "rstrip": false,
      "normalized": false,
      "special": true
    },
    {
      "id": 32067,
      "content": "<extra_id_67>",
      "single_word": false,
      "lstrip": false,
      "rstrip": false,
      "normalized": false,
      "special": true
    },
    {
      "id": 32068,
      "content": "<extra_id_68>",
      "single_word": false,
      "lstrip": false,
      "rstrip": false,
      "normalized": false,
      "special": true
    },
    {
      "id": 32069,
      "content": "<extra_id_69>",
      "single_word": false,
      "lstrip": false,
      "rstrip": false,
      "normalized": false,
      "special": true
    },
    {
      "id": 32070,
      "content": "<extra_id_70>",
      "single_word": false,
      "lstrip": false,
      "rstrip": false,
      "normalized": false,
      "special": true
    },
    {
      "id": 32071,
      "content": "<extra_id_71>",
      "single_word": false,
      "lstrip": false,
      "rstrip": false,
      "normalized": false,
      "special": true
    },
    {
      "id": 32072,
      "content": "<extra_id_72>",
      "single_word": false,
      "lstrip": false,
      "rstrip": false,
      "normalized": false,
      "special": true
    },
    {
      "id": 32073,
      "content": "<extra_id_73>",
      "single_word": false,
      "lstrip": false,
      "rstrip": false,
      "normalized": false,
      "special": true
    },
    {
      "id": 32074,
      "content": "<extra_id_74>",
      "single_word": false,
      "lstrip": false,
      "rstrip": false,
      "normalized": false,
      "special": true
    },
    {
      "id": 32075,
      "content": "<extra_id_75>",
      "single_word": false,
      "lstrip": false,
      "rstrip": false,
      "normalized": false,
      "special": true
    },
    {
      "id": 32076,
      "content": "<extra_id_76>",
      "single_word": false,
      "lstrip": false,
      "rstrip": false,
      "normalized": false,
      "special": true
    },
    {
      "id": 32077,
      "content": "<extra_id_77>",
      "single_word": false,
      "lstrip": false,
      "rstrip": false,
      "normalized": false,
      "special": true
    },
    {
      "id": 32078,
      "content": "<extra_id_78>",
      "single_word": false,
      "lstrip": false,
      "rstrip": false,
      "normalized": false,
      "special": true
    },
    {
      "id": 32079,
      "content": "<extra_id_79>",
      "single_word": false,
      "lstrip": false,
      "rstrip": false,
      "normalized": false,
      "special": true
    },
    {
      "id": 32080,
      "content": "<extra_id_80>",
      "single_word": false,
      "lstrip": false,
      "rstrip": false,
      "normalized": false,
      "special": true
    },
    {
      "id": 32081,
      "content": "<extra_id_81>",
      "single_word": false,
      "lstrip": false,
      "rstrip": false,
      "normalized": false,
      "special": true
    },
    {
      "id": 32082,
      "content": "<extra_id_82>",
      "single_word": false,
      "lstrip": false,
      "rstrip": false,
      "normalized": false,
      "special": true
    },
    {
      "id": 32083,
      "content": "<extra_id_83>",
      "single_word": false,
      "lstrip": false,
      "rstrip": false,
      "normalized": false,
      "special": true
    },
    {
      "id": 32084,
      "content": "<extra_id_84>",
      "single_word": false,
      "lstrip": false,
      "rstrip": false,
      "normalized": false,
      "special": true
    },
    {
      "id": 32085,
      "content": "<extra_id_85>",
      "single_word": false,
      "lstrip": false,
      "rstrip": false,
      "normalized": false,
      "special": true
    },
    {
      "id": 32086,
      "content": "<extra_id_86>",
      "single_word": false,
      "lstrip": false,
      "rstrip": false,
      "normalized": false,
      "special": true
    },
    {
      "id": 32087,
      "content": "<extra_id_87>",
      "single_word": false,
      "lstrip": false,
      "rstrip": false,
      "normalized": false,
      "special": true
    },
    {
      "id": 32088,
      "content": "<extra_id_88>",
      "single_word": false,
      "lstrip": false,
      "rstrip": false,
      "normalized": false,
      "special": true
    },
    {
      "id": 32089,
      "content": "<extra_id_89>",
      "single_word": false,
      "lstrip": false,
      "rstrip": false,
      "normalized": false,
      "special": true
    },
    {
      "id": 32090,
      "content": "<extra_id_90>",
      "single_word": false,
      "lstrip": false,
      "rstrip": false,
      "normalized": false,
      "special": true
    },
    {
      "id": 32091,
      "content": "<extra_id_91>",
      "single_word": false,
      "lstrip": false,
      "rstrip": false,
      "normalized": false,
      "special": true
    },
    {
      "id": 32092,
      "content": "<extra_id_92>",
      "single_word": false,
      "lstrip": false,
      "rstrip": false,
      "normalized": false,
      "special": true
    },
    {
      "id": 32093,
      "content": "<extra_id_93>",
      "single_word": false,
      "lstrip": false,
      "rstrip": false,
      "normalized": false,
      "special": true
    },
    {
      "id": 32094,
      "content": "<extra_id_94>",
      "single_word": false,
      "lstrip": false,
      "rstrip": false,
      "normalized": false,
      "special": true
    },
    {
      "id": 32095,
      "content": "<extra_id_95>",
      "single_word": false,
      "lstrip": false,
      "rstrip": false,
      "normalized": false,
      "special": true
    },
    {
      "id": 32096,
      "content": "<extra_id_96>",
      "single_word": false,
      "lstrip": false,
      "rstrip": false,
      "normalized": false,
      "special": true
    },
    {
      "id": 32097,
      "content": "<extra_id_97>",
      "single_word": false,
      "lstrip": false,
      "rstrip": false,
      "normalized": false,
      "special": true
    },
    {
      "id": 32098,
      "content": "<extra_id_98>",
      "single_word": false,
      "lstrip": false,
      "rstrip": false,
      "normalized": false,
      "special": true
    },
    {
      "id": 32099,
      "content": "<extra_id_99>",
      "single_word": false,
      "lstrip": false,
      "rstrip": false,
      "normalized": false,
      "special": true
    }
  ],
  "normalizer": {
    "type": "Sequence",
    "normalizers": [
      {
        "type": "Nmt"
      },
      {
        "type": "NFKC"
      },
      {
        "type": "Replace",
        "pattern": {
          "Regex": " {2,}"
        },
        "content": " "
      }
    ]
  },
  "pre_tokenizer": {
    "type": "Sequence",
    "pretokenizers": [
      {
        "type": "Metaspace",
        "replacement": "▁",
        "add_prefix_space": true,
        "prepend_scheme": "always"
      },
      {
        "type": "Digits",
        "individual_digits": true
      },
      {
        "type": "Punctuation",
        "behavior": "Isolated"
      }
    ]
  },
  "post_processor": {
    "type": "TemplateProcessing",
    "single": [
      {
        "Sequence": {
          "id": "A",
          "type_id": 0
        }
      },
      {
        "SpecialToken": {
          "id": "</s>",
          "type_id": 0
        }
      }
    ],
    "pair": [
      {
        "Sequence": {
          "id": "A",
          "type_id": 0
        }
      },
      {
        "Sequence": {
          "id": "B",
          "type_id": 1
        }
      }
    ],
    "special_tokens": {
      "</s>": {
        "id": "</s>",
        "ids": [
          1
        ],
        "tokens": [
          "</s>"
        ]
      }
    }
  },
  "decoder": {
    "type": "Metaspace",
    "replacement": "▁",
    "add_prefix_space": true,
    "prepend_scheme": "always"
  },
  "model": {
    "type": "Unigram",
    "unk_id": 2,
    "vocab": [
      [
        "<pad>",
        0.0
      ],
      [
        "</s>",
        0.0
      ],
      [
        "<unk>",
        0.0
      ],
      [
        "▁",
        -1.8902841251538651
      ],
      [
        ",",
        -3.594360583944354
      ],
      [
        ".",
        -3.62819338526028
      ],
      [
        "̣",
        -3.667405882876105
      ],
      [
        "▁ti",
        -3.9707600281443742
      ],
      [
        "n",
        -4.12036722170596
      ],
      [
        "▁ni",
        -4.194979754381105
      ],
      [
        "o",
        -4.232401162661262
      ],
      [
        "a",
        -4.475974298476176
      ],
      [
        "▁awọn",
        -4.484928663430688
      ],
      [
        "-",
        -4.688514425945641
      ],
      [
        "1",
        -4.837624696260777
      ],
      [
        "▁ṣe",
        -4.980815700033631
      ],
      [
        "i",
        -5.0796931365411435
      ],
      [
        "2",
        -5.141521377885674
      ],
      [
        "0",
        -5.1656210239342215
      ],
      [
        "▁ati",
        -5.198128022310872
      ],
      [
        "▁si",
        -5.257669960787187
      ],
      [
        "▁tó",
        -5.279426665889073
      ],
      [
        ":",
        -5.286845992925793
      ],
      [
        "▁wa",
        -5.326100928189142
      ],
      [
        "▁wọn",
        -5.349978714145946
      ],
      [
        "▁tí",
        -5.379994793859455
      ],
      [
        "▁àwọn",
        -5.389406510421226
      ],
      [
        "ń",
        -5.425956516028835
      ],
      [
        "▁kan",
        -5.428280214212863
      ],
      [
        "\"",
        -5.431403672974255
      ],
      [
        "▁lati",
        -5.461966618015783
      ],
      [
        "▁pé",
        -5.47866059804838
      ],
      [
        "▁ní",
        -5.5318574514089285
      ],
      [
        "s",
        -5.579443558989887
      ],
      [
        "ó",
        -5.589845961666942
      ],
      [
        "▁to",
        -5.598595378771007
      ],
      [
        "ò",
        -5.639957905453622
      ],
      [
        "▁fun",
        -5.67865791992376
      ],
      [
        "▁fi",
        -5.704671417088662
      ],
      [
        "e",
        -5.7071385312672
      ],
      [
        "▁jẹ",
        -5.778338809739527
      ],
      [
        "3",
        -5.8045887940893905
      ],
      [
        "▁pe",
        -5.805770275061386
      ],
      [
        "▁rẹ",
        -5.825099889805072
      ],
      [
        "▁máa",
        -5.844137427724432
      ],
      [
        "t",
        -5.850618288785483
      ],
      [
        ")",
        -5.90907075052753
      ],
      [
        "(",
        -5.9268522015041025
      ],
      [
        "́",
        -5.927807248598917
      ],
      [
        "▁ko",
        -5.944193802040989
      ],
      [
        "▁sọ",
        -5.9457846048212915
      ],
      [
        "9",
        -5.954134299647523
      ],
      [
        "5",
        -5.975724022194017
      ],
      [
        "▁ohun",
        -5.986222901358834
      ],
      [
        "̀",
        -5.98627510157621
      ],
      [
        "4",
        -5.991990982737834
      ],
      [
        "è",
        -5.996755059448278
      ],
      [
        "▁sí",
        -6.015764325942616
      ],
      [
        "▁sì",
        -6.0544689031486225
      ],
      [
        "?",
        -6.070357969747619
      ],
      [
        "ọ",
        -6.07303017139556
      ],
      [
        "▁ki",
        -6.0814478521076385
      ],
      [
        "▁naa",
        -6.120409122991495
      ],
      [
        "à",
        -6.126388021491419
      ],
      [
        "▁lọ",
        -6.129820682233694
      ],
      [
        "ì",
        -6.151814370180363
      ],
      [
        "▁Awọn",
        -6.176467897044947
      ],
      [
        "6",
        -6.176500678973161
      ],
      [
        "▁náà",
        -6.189893197553614
      ],
      [
        "▁bá",
        -6.190043192987844
      ],
      [
        "ẹ",
        -6.238017873717265
      ],
      [
        "8",
        -6.248442497755027
      ],
      [
        "7",
        -6.250629793790795
      ],
      [
        "▁wó",
        -6.255109097952861
      ],
      [
        "▁ló",
        -6.268827156503951
      ],
      [
        "▁lè",
        -6.288935999815365
      ],
      [
        "▁fún",
        -6.289283564326624
      ],
      [
        "á",
        -6.291358570621183
      ],
      [
        "▁le",
        -6.305604107564632
      ],
      [
        "▁ba",
        -6.311306940518273
      ],
      [
        "í",
        -6.338662175580371
      ],
      [
        "▁gbogbo",
        -6.357818257752042
      ],
      [
        "▁àti",
        -6.370311785331879
      ],
      [
        "▁O",
        -6.371255663694406
      ],
      [
        "▁pẹlu",
        -6.3830065578170725
      ],
      [
        "▁kí",
        -6.390744565345761
      ],
      [
        "▁bi",
        -6.395333767750158
      ],
      [
        "▁láti",
        -6.409796011091757
      ],
      [
        "▁lo",
        -6.449878300757126
      ],
      [
        "▁mi",
        -6.459249191469151
      ],
      [
        "l",
        -6.465814115782388
      ],
      [
        "▁ninu",
        -6.4866850573617025
      ],
      [
        "▁gba",
        -6.507541920859701
      ],
      [
        "▁kò",
        -6.5127646000902075
      ],
      [
        "▁kó",
        -6.525619651705018
      ],
      [
        "▁ọmọ",
        -6.532107026638176
      ],
      [
        "▁lori",
        -6.535857835864855
      ],
      [
        "▁ara",
        -6.544612984313501
      ],
      [
        "▁A",
        -6.548081940919927
      ],
      [
        "▁yoo",
        -6.550657173900834
      ],
      [
        "▁wà",
        -6.571608488266685
      ],
      [
        "▁jé",
        -6.628361436710785
      ],
      [
        "u",
        -6.649490394718047
      ],
      [
        "▁nínú",
        -6.6504417045945114
      ],
      [
        "▁Jèhófà",
        -6.651258796528531
      ],
      [
        "”",
        -6.662005597222771
      ],
      [
        "▁wá",
        -6.662740357187982
      ],
      [
        "▁mọ",
        -6.67116077982571
      ],
      [
        "▁ile",
        -6.712459819882005
      ],
      [
        "▁bí",
        -6.715970488803018
      ],
      [
        "“",
        -6.73494406738528
      ],
      [
        "r",
        -6.745410191425023
      ],
      [
        "'",
        -6.756368610909977
      ],
      [
        "▁rè",
        -6.768552530639681
      ],
      [
        "é",
        -6.789350412732947
      ],
      [
        "/",
        -6.810123444426001
      ],
      [
        "ri",
        -6.817038497465122
      ],
      [
        "▁wọ́n",
        -6.818589491270522
      ],
      [
        "▁rí",
        -6.824310411566975
      ],
      [
        "▁yii",
        -6.836299115248108
      ],
      [
        "▁yìí",
        -6.849488361963941
      ],
      [
        "▁mo",
        -6.867924770132783
      ],
      [
        "y",
        -6.868734855715823
      ],
      [
        "▁di",
        -6.887606067640069
      ],
      [
        ";",
        -6.909586358813373
      ],
      [
        "▁ká",
        -6.921746467225246
      ],
      [
        "▁jẹ́",
        -6.932372014762915
      ],
      [
        "▁ibi",
        -6.973923378391248
      ],
      [
        "m",
        -6.974843952560137
      ],
      [
        "▁run",
        -6.979110188901508
      ],
      [
        "▁tabi",
        -6.982366865545654
      ],
      [
        "ni",
        -7.032003421356185
      ],
      [
        "▁mu",
        -7.040230777787725
      ],
      [
        "▁èèyàn",
        -7.045731136118192
      ],
      [
        "w",
        -7.05996251757923
      ],
      [
        "▁lẹ",
        -7.08241892384418
      ],
      [
        "▁iṣẹ",
        -7.085870223501994
      ],
      [
        "Ó",
        -7.086434289914234
      ],
      [
        "▁lé",
        -7.091548370628534
      ],
      [
        "▁ẹni",
        -7.095927345293305
      ],
      [
        "▁mú",
        -7.110891833968179
      ],
      [
        "▁pa",
        -7.139368418326876
      ],
      [
        "k",
        -7.144958465923043
      ],
      [
        "!",
        -7.151377110915316
      ],
      [
        "▁Ọló",
        -7.156731136324328
      ],
      [
        "▁nipa",
        -7.159904109153885
      ],
      [
        "▁tun",
        -7.162012025830709
      ],
      [
        "▁yẹ",
        -7.174044574368033
      ],
      [
        "un",
        -7.174305698971327
      ],
      [
        "d",
        -7.1761652972189385
      ],
      [
        "▁Ni",
        -7.180510888214572
      ],
      [
        "ti",
        -7.19137024828782
      ],
      [
        "▁ju",
        -7.195374013775398
      ],
      [
        "ra",
        -7.201101440849429
      ],
      [
        "Àwọn",
        -7.20798869011794
      ],
      [
        "▁dara",
        -7.210052970337976
      ],
      [
        "ù",
        -7.217993519698599
      ],
      [
        "▁tá",
        -7.224808730831485
      ],
      [
        "▁kọ",
        -7.239206730182829
      ],
      [
        "▁nípa",
        -7.243099190106736
      ],
      [
        "p",
        -7.2582475229776335
      ],
      [
        "▁wo",
        -7.265700950895257
      ],
      [
        "▁rò",
        -7.28813322071651
      ],
      [
        "▁mí",
        -7.310004637862837
      ],
      [
        "▁owo",
        -7.318897949653277
      ],
      [
        "▁tọn",
        -7.3291503836841105
      ],
      [
        "▁Jésù",
        -7.336208244331544
      ],
      [
        "▁Bíbél",
        -7.338303028350483
      ],
      [
        "▁de",
        -7.369778854113436
      ],
      [
        "g",
        -7.375127571902432
      ],
      [
        "▁gbé",
        -7.379163406296785
      ],
      [
        "▁ọdún",
        -7.384654562013033
      ],
      [
        "le",
        -7.385946467555264
      ],
      [
        "wọn",
        -7.3877047524323185
      ],
      [
        "ú",
        -7.388136478124728
      ],
      [
        "▁rẹ̀",
        -7.392840220409269
      ],
      [
        "▁Mo",
        -7.401666851867878
      ],
      [
        "iṣẹ",
        -7.402133990433175
      ],
      [
        "▁gbe",
        -7.416430242435164
      ],
      [
        "si",
        -7.440385878796329
      ],
      [
        "▁Ti",
        -7.444135333494016
      ],
      [
        "▁nígbà",
        -7.448914348982338
      ],
      [
        "▁ọkọ",
        -7.459453431610802
      ],
      [
        "h",
        -7.460947665427607
      ],
      [
        "▁eniyan",
        -7.470941470112743
      ],
      [
        "▁nipasẹ",
        -7.478828494187223
      ],
      [
        "▁tún",
        -7.479103555259529
      ],
      [
        "▁oun",
        -7.47986298887828
      ],
      [
        "▁ma",
        -7.4827165891172545
      ],
      [
        "▁ayé",
        -7.489545846381773
      ],
      [
        "▁julọ",
        -7.498378332473779
      ],
      [
        "▁gbà",
        -7.515268093432887
      ],
      [
        "▁diẹ",
        -7.515844410238193
      ],
      [
        "▁I",
        -7.517097100698511
      ],
      [
        "▁ọdun",
        -7.520616097736664
      ],
      [
        "▁ọjọ",
        -7.527408164058599
      ],
      [
        "▁yẹn",
        -7.527448831342998
      ],
      [
        "▁ọna",
        -7.529473831527918
      ],
      [
        "▁dá",
        -7.5335135122128225
      ],
      [
        "▁mẹ",
        -7.537892727140827
      ],
      [
        "’",
        -7.538485419423921
      ],
      [
        "▁ọrọ",
        -7.543644648505634
      ],
      [
        "▁ẹgbẹ",
        -7.549122652609558
      ],
      [
        "▁yi",
        -7.555928209873786
      ],
      [
        "▁eyi",
        -7.560797547001283
      ],
      [
        "▁oju",
        -7.566095544829487
      ],
      [
        "▁tàbí",
        -7.579444828155161
      ],
      [
        "▁òun",
        -7.581163043315803
      ],
      [
        "▁Kí",
        -7.586796607035442
      ],
      [
        "b",
        -7.59135556287384
      ],
      [
        "▁la",
        -7.599217086553043
      ],
      [
        "▁se",
        -7.603170603241415
      ],
      [
        "ede",
        -7.607815433170048
      ],
      [
        "▁maa",
        -7.6283245643762
      ],
      [
        "▁of",
        -7.634340946713509
      ],
      [
        "]",
        -7.635901158765881
      ],
      [
        "nu",
        -7.639419490977685
      ],
      [
        "[",
        -7.639956511241211
      ],
      [
        "▁da",
        -7.64514824308414
      ],
      [
        "f",
        -7.679986739697371
      ],
      [
        "▁je",
        -7.680791175115962
      ],
      [
        "▁pò",
        -7.684480104080954
      ],
      [
        "▁eto",
        -7.698618438286767
      ],
      [
        "▁kékeré",
        -7.699762458247793
      ],
      [
        "▁lára",
        -7.714615945446861
      ],
      [
        "▁lórí",
        -7.71599828877943
      ],
      [
        "▁gan",
        -7.721925339990154
      ],
      [
        "▁bo",
        -7.723809560849443
      ],
      [
        "▁yóò",
        -7.73307751660872
      ],
      [
        "▁ilé",
        -7.738312154269595
      ],
      [
        "▁ilu",
        -7.741834550369061
      ],
      [
        "de",
        -7.7550168931424
      ],
      [
        "▁nitori",
        -7.756278983613926
      ],
      [
        "▁po",
        -7.759159138751283
      ],
      [
        "▁ka",
        -7.767686078959875
      ],
      [
        "▁the",
        -7.77269506378067
      ],
      [
        "▁fẹ",
        -7.777578544088341
      ],
      [
        "▁yin",
        -7.785022375000379
      ],
      [
        "▁ìwé",
        -7.785908892383853
      ],
      [
        "▁pataki",
        -7.796481152111195
      ],
      [
        "▁N",
        -7.805324268618628
      ],
      [
        "▁akoko",
        -7.8073171300593245
      ],
      [
        "▁awon",
        -7.808862765465813
      ],
      [
        "j",
        -7.815159525456327
      ],
      [
        "▁won",
        -7.820345345125563
      ],
      [
        "▁Ọlọ́run",
        -7.829958855406982
      ],
      [
        "A",
        -7.834551377656323
      ],
      [
        "▁ástẹ",
        -7.838511817297114
      ],
      [
        "▁plánẹ",
        -7.8398739168874
      ],
      [
        "▁ìgbàj",
        -7.844135380451258
      ],
      [
        "▁wò",
        -7.844144381548563
      ],
      [
        "▁hàn",
        -7.845695228048852
      ],
      [
        "▁ẹrọ",
        -7.847530362271288
      ],
      [
        "▁mó",
        -7.857639274966448
      ],
      [
        "▁igba",
        -7.858942474517942
      ],
      [
        "▁aye",
        -7.863495758729183
      ],
      [
        "▁Ò",
        -7.869566168667888
      ],
      [
        "▁he",
        -7.873948073156736
      ],
      [
        "▁agbara",
        -7.88685712896627
      ],
      [
        "▁kì",
        -7.887267182805056
      ],
      [
        "▁Ohun",
        -7.894980977842758
      ],
      [
        "▁ṣugbọn",
        -7.896099242496925
      ],
      [
        "=",
        -7.900235355640984
      ],
      [
        "▁pè",
        -7.903137336257277
      ],
      [
        "▁rọ",
        -7.9161832005628145
      ],
      [
        "▁yìn",
        -7.916513508849261
      ],
      [
        "▁èyí",
        -7.920858413694228
      ],
      [
        "▁bé",
        -7.922234889191643
      ],
      [
        "▁ọkan",
        -7.922462199894811
      ],
      [
        "▁fé",
        -7.933810172338447
      ],
      [
        "▁ayelujara",
        -7.940130358428709
      ],
      [
        ">",
        -7.966298373972434
      ],
      [
        "▁do",
        -7.969361806408733
      ],
      [
        "▁miiran",
        -7.983385032011116
      ],
      [
        "▁èdè",
        -7.987100993565237
      ],
      [
        "▁gbó",
        -7.9877267121973805
      ],
      [
        "▁Bí",
        -7.987945959395839
      ],
      [
        "▁nigba",
        -7.989494819528563
      ],
      [
        "▁eeyan",
        -7.993843634699216
      ],
      [
        "▁ere",
        -7.997610193209036
      ],
      [
        "▁aaye",
        -8.003543255054662
      ],
      [
        "▁iṣé",
        -8.011280668720081
      ],
      [
        "—",
        -8.01647659974009
      ],
      [
        "▁ijọba",
        -8.021218032813715
      ],
      [
        "▁wọ",
        -8.02540028475396
      ],
      [
        "▁Naijiria",
        -8.027994297241728
      ],
      [
        "▁ipo",
        -8.028582272595344
      ],
      [
        "▁jọ",
        -8.030909350738026
      ],
      [
        "▁Nígbà",
        -8.03437432544408
      ],
      [
        "mi",
        -8.034935768033982
      ],
      [
        "wa",
        -8.038317687902381
      ],
      [
        "▁dà",
        -8.046521258213662
      ],
      [
        "▁Ile",
        -8.050938953941372
      ],
      [
        "▁Ní",
        -8.050955990316195
      ],
      [
        "▁fa",
        -8.057510408960706
      ],
      [
        "▁agbegbe",
        -8.060148007454588
      ],
      [
        "▁Ẹ",
        -8.063076786199607
      ],
      [
        "ṣ",
        -8.064991468512883
      ],
      [
        "▁omi",
        -8.067757267759763
      ],
      [
        "▁tì",
        -8.06919454260255
      ],
      [
        "▁inú",
        -8.079610696945682
      ],
      [
        "▁ọpọlọpọ",
        -8.081084589371942
      ],
      [
        "la",
        -8.084339886303455
      ],
      [
        "▁bó",
        -8.086358010646638
      ],
      [
        "▁ṣiṣẹ",
        -8.099540790730273
      ],
      [
        "▁iwe",
        -8.104400668898663
      ],
      [
        "iwe",
        -8.110515249376084
      ],
      [
        "▁elo",
        -8.111481330943265
      ],
      [
        "▁S",
        -8.111832670443246
      ],
      [
        "▁akọkọ",
        -8.114775245749765
      ],
      [
        "▁bẹrẹ",
        -8.117936221214709
      ],
      [
        "▁ìgbà",
        -8.121229385023627
      ],
      [
        "▁sii",
        -8.126757947406269
      ],
      [
        "nado",
        -8.129436774534453
      ],
      [
        "▁nla",
        -8.131249496074986
      ],
      [
        "▁ará",
        -8.132147975707438
      ],
      [
        "▁lọwọ",
        -8.135916509773864
      ],
      [
        "lu",
        -8.137014335462865
      ],
      [
        "▁laarin",
        -8.141693065814456
      ],
      [
        "ṣe",
        -8.144950084539571
      ],
      [
        "&",
        -8.14902850930627
      ],
      [
        "rin",
        -8.15300698747074
      ],
      [
        "▁ilẹ",
        -8.154563074923075
      ],
      [
        "▁L",
        -8.157129430511498
      ],
      [
        "▁iru",
        -8.18156887206087
      ],
      [
        "▁dọ",
        -8.182204536281162
      ],
      [
        "▁jade",
        -8.182561914587767
      ],
      [
        "▁tuntun",
        -8.182582699946646
      ],
      [
        "▁mò",
        -8.18312268055704
      ],
      [
        "▁ipa",
        -8.189346103513232
      ],
      [
        "▁ìlú",
        -8.189830198298928
      ],
      [
        "▁dé",
        -8.189985013876505
      ],
      [
        "*",
        -8.190786301520104
      ],
      [
        "ki",
        -8.190871590904376
      ],
      [
        "▁ji",
        -8.19301301218059
      ],
      [
        "re",
        -8.193487339059823
      ],
      [
        "▁E",
        -8.199067091308818
      ],
      [
        "▁ràn",
        -8.20086038163322
      ],
      [
        "▁ọja",
        -8.204510810570138
      ],
      [
        "▁Kristẹn",
        -8.210986640851328
      ],
      [
        "O",
        -8.217131341308566
      ],
      [
        "▁meji",
        -8.218609712045312
      ],
      [
        "▁ọkàn",
        -8.218920711740925
      ],
      [
        "▁wẹ",
        -8.220582978892294
      ],
      [
        "▁ya",
        -8.224892506580026
      ],
      [
        "lẹ",
        -8.225425641711368
      ],
      [
        "|",
        -8.226925070136808
      ],
      [
        "▁and",
        -8.229644004447541
      ],
      [
        "èdè",
        -8.230054475286245
      ],
      [
        "▁pada",
        -8.23025240022883
      ],
      [
        "▁Ṣe",
        -8.23205965424185
      ],
      [
        "ye",
        -8.233981338456013
      ],
      [
        "▁là",
        -8.234740617312166
      ],
      [
        "▁míì",
        -8.235129617660268
      ],
      [
        "▁irú",
        -8.236746658230851
      ],
      [
        "▁tẹ",
        -8.242391631338174
      ],
      [
        "▁kàn",
        -8.243775132264256
      ],
      [
        "▁ofin",
        -8.24410485178828
      ],
      [
        "▁yí",
        -8.25095370389445
      ],
      [
        "ba",
        -8.25111367068088
      ],
      [
        "se",
        -8.252330196851192
      ],
      [
        "▁alaye",
        -8.256305104964321
      ],
      [
        "gun",
        -8.25733310405804
      ],
      [
        "▁rere",
        -8.257488904130014
      ],
      [
        "ing",
        -8.258013354753253
      ],
      [
        "ún",
        -8.262055951502937
      ],
      [
        "▁má",
        -8.264728619869773
      ],
      [
        "▁jù",
        -8.268161065670204
      ],
      [
        "▁wọnyi",
        -8.268256384694634
      ],
      [
        "▁gé",
        -8.26856116785047
      ],
      [
        "▁nikan",
        -8.268910939969519
      ],
      [
        "▁ké",
        -8.269941838297072
      ],
      [
        "bi",
        -8.27470191383629
      ],
      [
        "to",
        -8.279545024649208
      ],
      [
        "▁nibi",
        -8.282425363671
      ],
      [
        "▁ipinlẹ",
        -8.28395805957397
      ],
      [
        "di",
        -8.285449181913616
      ],
      [
        "▁ìyẹn",
        -8.286154209643493
      ],
      [
        "c",
        -8.286178181385779
      ],
      [
        "▁lú",
        -8.286303157346742
      ],
      [
        "▁orin",
        -8.296451509843981
      ],
      [
        "▁iye",
        -8.296710974052527
      ],
      [
        "▁ṣè",
        -8.30207462528097
      ],
      [
        "▁pupọ",
        -8.303723484523196
      ],
      [
        "▁inu",
        -8.308562654167588
      ],
      [
        "▁fẹ́",
        -8.31103462380989
      ],
      [
        "▁ojú",
        -8.31612653155063
      ],
      [
        "ko",
        -8.317985749477769
      ],
      [
        "▁nilo",
        -8.318469550796157
      ],
      [
        "+",
        -8.321311823503551
      ],
      [
        "▁pàtàkì",
        -8.324315420253289
      ],
      [
        "▁Ati",
        -8.325630971706703
      ],
      [
        "▁ẹya",
        -8.329261662490605
      ],
      [
        "▁nítorí",
        -8.330315341406038
      ],
      [
        "▁té",
        -8.331244032139395
      ],
      [
        "▁yé",
        -8.333582501725308
      ],
      [
        "▁Ko",
        -8.352159199717542
      ],
      [
        "▁À",
        -8.354737438597427
      ],
      [
        "▁ilana",
        -8.363668339484745
      ],
      [
        "▁tè",
        -8.365767367335257
      ],
      [
        "▁silẹ",
        -8.36910412757661
      ],
      [
        "rù",
        -8.376219546456346
      ],
      [
        "▁J",
        -8.376807144983273
      ],
      [
        "▁táwọ",
        -8.380895073256157
      ],
      [
        "ìdì",
        -8.381290618794916
      ],
      [
        "ed",
        -8.381304716923983
      ],
      [
        "▁kuro",
        -8.387546944904964
      ],
      [
        "▁bíi",
        -8.39075141508709
      ],
      [
        "▁anfani",
        -8.393267404585805
      ],
      [
        "▁bii",
        -8.398548526633931
      ],
      [
        "jáde",
        -8.399881545403638
      ],
      [
        "▁torí",
        -8.401577241325878
      ],
      [
        "▁lilo",
        -8.40215145025226
      ],
      [
        "▁dò",
        -8.402600724454238
      ],
      [
        "jú",
        -8.405318910373714
      ],
      [
        "▁Bi",
        -8.405951442699834
      ],
      [
        "lè",
        -8.409569750927812
      ],
      [
        "▁nǹkan",
        -8.416592939183568
      ],
      [
        "▁iṣẹ́",
        -8.417953460287766
      ],
      [
        "S",
        -8.421460601789175
      ],
      [
        "▁idi",
        -8.42277313437129
      ],
      [
        "▁àtàwọ",
        -8.424635811890612
      ],
      [
        "▁irin",
        -8.425903794851566
      ],
      [
        "da",
        -8.428405798424494
      ],
      [
        "▁Fun",
        -8.42970502636441
      ],
      [
        "D",
        -8.431058117756734
      ],
      [
        "▁yan",
        -8.431751163207402
      ],
      [
        "▁Tó",
        -8.432074542400942
      ],
      [
        "▁nkan",
        -8.433802313683227
      ],
      [
        "▁re",
        -8.434729061299064
      ],
      [
        "▁bẹ́ẹ̀",
        -8.436787763021762
      ],
      [
        "▁ìwà",
        -8.43829258434989
      ],
      [
        "▁kii",
        -8.43955641355638
      ],
      [
        "▁gbọ",
        -8.44092524595008
      ],
      [
        "%",
        -8.445901962070812
      ],
      [
        "▁ogun",
        -8.449414235110849
      ],
      [
        "‘",
        -8.450782996775047
      ],
      [
        "▁sinu",
        -8.456038781442427
      ],
      [
        "I",
        -8.456522607762507
      ],
      [
        "▁Àmó",
        -8.456892224125363
      ],
      [
        "▁yọ",
        -8.45865605573539
      ],
      [
        "▁ọlọpaa",
        -8.460239195134449
      ],
      [
        "pe",
        -8.469340829234119
      ],
      [
        "▁B",
        -8.470783345812146
      ],
      [
        "▁ènìyàn",
        -8.474596545913872
      ],
      [
        "▁bẹ",
        -8.474617330925065
      ],
      [
        "▁Ì",
        -8.475107368078605
      ],
      [
        "v",
        -8.476861155231795
      ],
      [
        "▁orilẹ",
        -8.47696146212197
      ],
      [
        "▁kú",
        -8.480128590444949
      ],
      [
        "▁eyiti",
        -8.4813612635696
      ],
      [
        "▁Ilu",
        -8.482807893129108
      ],
      [
        "▁iroyin",
        -8.483732824887912
      ],
      [
        "▁ori",
        -8.48554923844497
      ],
      [
        "do",
        -8.486605743837467
      ],
      [
        "▁pese",
        -8.48808150838903
      ],
      [
        "▁Gbogbo",
        -8.489655339933616
      ],
      [
        "▁lójú",
        -8.491861037345089
      ],
      [
        "▁wipe",
        -8.494307484231115
      ],
      [
        "▁àpẹẹrẹ",
        -8.496472448723027
      ],
      [
        "▁so",
        -8.498121234879868
      ],
      [
        "▁mọ́",
        -8.508251380674468
      ],
      [
        "▁Ọmọ",
        -8.508372257510944
      ],
      [
        "wo",
        -8.510115764066652
      ],
      [
        "▁mé",
        -8.510475232055411
      ],
      [
        "▁ilè",
        -8.512072116744065
      ],
      [
        "▁lò",
        -8.512154631307274
      ],
      [
        "▁ga",
        -8.519886270354382
      ],
      [
        "▁han",
        -8.521625188311742
      ],
      [
        "▁Ìjọba",
        -8.526429240533178
      ],
      [
        "wàásù",
        -8.527203261490186
      ],
      [
        "ka",
        -8.53081196242393
      ],
      [
        "▁Báw",
        -8.536418623445165
      ],
      [
        "▁eyikeyi",
        -8.536513823367551
      ],
      [
        "▁Kristi",
        -8.537740170826005
      ],
      [
        "▁yín",
        -8.537808818102796
      ],
      [
        "▁bẹẹ",
        -8.539568638201601
      ],
      [
        "▁bè",
        -8.540808866304136
      ],
      [
        "▁TI",
        -8.541034929403642
      ],
      [
        "▁waye",
        -8.5433191324007
      ],
      [
        "́tì",
        -8.544811104740496
      ],
      [
        "́rọ́",
        -8.546528634132855
      ],
      [
        "▁K",
        -8.549029949992104
      ],
      [
        "kan",
        -8.552609491778895
      ],
      [
        "▁bọ",
        -8.553033700075364
      ],
      [
        "we",
        -8.55841841154851
      ],
      [
        "èyàn",
        -8.562919409175691
      ],
      [
        "▁ọkunrin",
        -8.564589853803882
      ],
      [
        "▁ran",
        -8.566153641897396
      ],
      [
        "▁kekere",
        -8.566395888536624
      ],
      [
        "N",
        -8.566977798734085
      ],
      [
        "lé",
        -8.571830911236678
      ],
      [
        "▁Eyi",
        -8.57267932077204
      ],
      [
        "ara",
        -8.57314054139756
      ],
      [
        "▁ọba",
        -8.578074930588228
      ],
      [
        "▁lọ́wọ́",
        -8.581778291606803
      ],
      [
        "mu",
        -8.592618739195828
      ],
      [
        "▁nigbati",
        -8.59419679281911
      ],
      [
        "▁orí",
        -8.596020593552971
      ],
      [
        "▁dùn",
        -8.597269077051314
      ],
      [
        "▁Jesu",
        -8.601722088075556
      ],
      [
        "▁The",
        -8.605902240861246
      ],
      [
        "▁ọwọ",
        -8.606325869975265
      ],
      [
        "▁ọ̀rọ̀",
        -8.612370665025425
      ],
      [
        "er",
        -8.614030005821698
      ],
      [
        "▁oni",
        -8.618598874079098
      ],
      [
        "awọn",
        -8.622186240082826
      ],
      [
        "▁Wọn",
        -8.624779831343107
      ],
      [
        "▁Ọlọrun",
        -8.62608961209143
      ],
      [
        "▁nibẹ",
        -8.629787695700568
      ],
      [
        "▁pọ",
        -8.633780282604206
      ],
      [
        "▁To",
        -8.636663719945364
      ],
      [
        "▁etọn",
        -8.646831061775634
      ],
      [
        "▁Ìwé",
        -8.647472365841821
      ],
      [
        "lo",
        -8.648148965487017
      ],
      [
        "ju",
        -8.64841468010431
      ],
      [
        "▁ọdọ",
        -8.649511615530683
      ],
      [
        "▁ètò",
        -8.650446052005348
      ],
      [
        "pa",
        -8.654890203515984
      ],
      [
        "▁sọrọ",
        -8.659417117528726
      ],
      [
        "▁ìdì",
        -8.660462741567237
      ],
      [
        "▁Lati",
        -8.661005692693946
      ],
      [
        "▁tẹlẹ",
        -8.666060973186601
      ],
      [
        "▁iṣowo",
        -8.667093147790993
      ],
      [
        "▁ìjọba",
        -8.66729084597388
      ],
      [
        "▁ìjọ",
        -8.667571932114805
      ],
      [
        "gbe",
        -8.669842884967746
      ],
      [
        "▁ọhun",
        -8.670842130669492
      ],
      [
        "▁Yoruba",
        -8.674568477133255
      ],
      [
        "▁kúrò",
        -8.678533443375871
      ],
      [
        "▁fara",
        -8.679317776937188
      ],
      [
        "–",
        -8.6818039443548
      ],
      [
        "▁imọran",
        -8.68198238951786
      ],
      [
        "▁agbaye",
        -8.686550577722295
      ],
      [
        "▁ṣeé",
        -8.688386460352854
      ],
      [
        "po",
        -8.689211420894287
      ],
      [
        "▁duro",
        -8.690198828703837
      ],
      [
        "K",
        -8.694096432139142
      ],
      [
        "▁baba",
        -8.702021377765115
      ],
      [
        "▁báyìí",
        -8.70362986358321
      ],
      [
        "_",
        -8.704113666027197
      ],
      [
        "jẹ",
        -8.70676157501337
      ],
      [
        "▁C",
        -8.709096149317812
      ],
      [
        "▁tọ",
        -8.709194997700349
      ],
      [
        "▁Ọba",
        -8.7130817647902
      ],
      [
        "mù",
        -8.71394683035423
      ],
      [
        "B",
        -8.717335861452142
      ],
      [
        "▁gbọdọ",
        -8.71754118995781
      ],
      [
        "▁lì",
        -8.718629428016962
      ],
      [
        "ẹjọ",
        -8.71886175582634
      ],
      [
        "▁oṣu",
        -8.71934930471977
      ],
      [
        "▁imọ",
        -8.719662699851082
      ],
      [
        "▁ku",
        -8.720053714608174
      ],
      [
        "▁méjì",
        -8.720934703332201
      ],
      [
        "▁ronú",
        -8.721555124098186
      ],
      [
        "▁giga",
        -8.726781518506503
      ],
      [
        "▁titun",
        -8.727954040154017
      ],
      [
        "▁siwaju",
        -8.728066737863044
      ],
      [
        "ma",
        -8.72835505906691
      ],
      [
        "▁ńlá",
        -8.728687229517046
      ],
      [
        "ru",
        -8.731476497830577
      ],
      [
        "▁ṣì",
        -8.731847061569955
      ],
      [
        "▁Bó",
        -8.732653723969628
      ],
      [
        "▁lẹhin",
        -8.733121729498944
      ],
      [
        "▁T",
        -8.741697689817611
      ],
      [
        "▁kọ́",
        -8.742334899354526
      ],
      [
        "È",
        -8.74890426037202
      ],
      [
        "▁lawọn",
        -8.750983047746532
      ],
      [
        "▁daradara",
        -8.752527833549212
      ],
      [
        "▁gẹgẹ",
        -8.75380371933884
      ],
      [
        "▁títí",
        -8.75388539501195
      ],
      [
        "mọ",
        -8.75521851757524
      ],
      [
        "▁àkókò",
        -8.758515900189877
      ],
      [
        "ya",
        -8.764056536936613
      ],
      [
        "▁ero",
        -8.765985209079055
      ],
      [
        "▁aworan",
        -8.765998457397131
      ],
      [
        "gba",
        -8.766053207385616
      ],
      [
        "vi",
        -8.768275784172644
      ],
      [
        "ọkùnrin",
        -8.769011630071017
      ],
      [
        "▁Kò",
        -8.771407303319883
      ],
      [
        "▁Ẹlé",
        -8.773795585740379
      ],
      [
        "▁Eko",
        -8.779130852938069
      ],
      [
        "▁Ṣugbọn",
        -8.780915156676654
      ],
      [
        "▁wé",
        -8.783198766186867
      ],
      [
        "▁be",
        -8.783474850337791
      ],
      [
        "x",
        -8.785999435599885
      ],
      [
        "▁ise",
        -8.787712827428066
      ],
      [
        "▁sò",
        -8.790121626068482
      ],
      [
        "▁kọja",
        -8.792987804446769
      ],
      [
        "▁ṣiṣe",
        -8.79336216816294
      ],
      [
        "▁lù",
        -8.796331029608522
      ],
      [
        "▁rìí",
        -8.797234717998668
      ],
      [
        "▁Jehova",
        -8.79738325241835
      ],
      [
        "▁san",
        -8.79852842317814
      ],
      [
        "▁iṣẹlẹ",
        -8.805239677426522
      ],
      [
        "▁àwa",
        -8.80955186044904
      ],
      [
        "▁owó",
        -8.809957774919482
      ],
      [
        "<",
        -8.811166724916452
      ],
      [
        "▁orukọ",
        -8.814545168953929
      ],
      [
        "▁Fi",
        -8.817710565482695
      ],
      [
        "▁M",
        -8.818162140616181
      ],
      [
        "▁orúkọ",
        -8.818240433279357
      ],
      [
        "▁titi",
        -8.821509751078132
      ],
      [
        "▁oṣù",
        -8.824554283668403
      ],
      [
        "ku",
        -8.825320817063094
      ],
      [
        "▁iwọn",
        -8.825575890534125
      ],
      [
        "▁sílè",
        -8.8276632827405
      ],
      [
        "▁pẹ̀lú",
        -8.829060592867254
      ],
      [
        "ajo",
        -8.829261971372487
      ],
      [
        "▁iranlọwọ",
        -8.829597151101988
      ],
      [
        "▁ẹṣọ",
        -8.832970528764216
      ],
      [
        "▁èrò",
        -8.833271046938577
      ],
      [
        "▁Ṣé",
        -8.837574126469045
      ],
      [
        "▁Casino",
        -8.83862917024744
      ],
      [
        "▁pari",
        -8.83879156875305
      ],
      [
        "▁mọ̀",
        -8.83981519251601
      ],
      [
        "▁Agbegbe",
        -8.840668183723814
      ],
      [
        "▁ìdílé",
        -8.8419743696165
      ],
      [
        "▁dur",
        -8.842089498752344
      ],
      [
        "▁Nàìjíríà",
        -8.850170279031577
      ],
      [
        "▁ìṣòr",
        -8.85158922992758
      ],
      [
        "▁obìnrin",
        -8.852375941777323
      ],
      [
        "▁obinrin",
        -8.852698040991498
      ],
      [
        "▁ilẹ̀",
        -8.853181938353057
      ],
      [
        "▁rii",
        -8.85378302272009
      ],
      [
        "pọ",
        -8.856469933642238
      ],
      [
        "com",
        -8.856609535848587
      ],
      [
        "th",
        -8.85765877596712
      ],
      [
        "▁iwa",
        -8.85810288829703
      ],
      [
        "L",
        -8.858864703085965
      ],
      [
        "▁Pẹlu",
        -8.858996946705947
      ],
      [
        "▁start",
        -8.860303590556851
      ],
      [
        "▁fidio",
        -8.861281061008594
      ],
      [
        "▁nnkan",
        -8.863168537983753
      ],
      [
        "▁aabo",
        -8.865891793794273
      ],
      [
        "▁Tí",
        -8.86688338898718
      ],
      [
        "▁pinnu",
        -8.867977810241849
      ],
      [
        "▁awọ",
        -8.869377581582956
      ],
      [
        "▁beere",
        -8.870368072179106
      ],
      [
        "▁ami",
        -8.872119862257822
      ],
      [
        "▁bayi",
        -8.872343385001573
      ],
      [
        "▁gidi",
        -8.872464162870541
      ],
      [
        "Gbè",
        -8.88317360566285
      ],
      [
        "▁tan",
        -8.884605894470688
      ],
      [
        "▁afikun",
        -8.888351778718262
      ],
      [
        "fi",
        -8.889759062613324
      ],
      [
        "▁kankan",
        -8.89372565829989
      ],
      [
        "▁agba",
        -8.895650396514567
      ],
      [
        "▁mìíràn",
        -8.896915132816154
      ],
      [
        "▁kún",
        -8.897214669103464
      ],
      [
        "▁òbí",
        -8.897828847882623
      ],
      [
        "▁iwadi",
        -8.89818397188934
      ],
      [
        "M",
        -8.89853656886012
      ],
      [
        "▁nìyẹ",
        -8.901875916084322
      ],
      [
        "Ọ",
        -8.905307836969365
      ],
      [
        "▁omo",
        -8.90641394915081
      ],
      [
        "sọ",
        -8.907217338757839
      ],
      [
        "▁fáwọ",
        -8.908052753998158
      ],
      [
        "yẹwhe",
        -8.908420757807415
      ],
      [
        "▁nìdí",
        -8.90985156965651
      ],
      [
        "▁P",
        -8.911562724090176
      ],
      [
        "▁Ka",
        -8.91210793864753
      ],
      [
        "▁mẹta",
        -8.912358813646197
      ],
      [
        "bo",
        -8.916145821892027
      ],
      [
        "▁Baba",
        -8.91798037958096
      ],
      [
        "▁ọjọ́",
        -8.919987449216173
      ],
      [
        "ga",
        -8.920501421052327
      ],
      [
        "▁go",
        -8.921966297425108
      ],
      [
        "▁ẹkọ",
        -8.925582963980297
      ],
      [
        "▁D",
        -8.927926322112608
      ],
      [
        "▁nìkan",
        -8.930077401024317
      ],
      [
        "▁Nigba",
        -8.930710123838246
      ],
      [
        "▁Oṣu",
        -8.931752741221299
      ],
      [
        "ọjó",
        -8.931883792334293
      ],
      [
        "rùn",
        -8.932602898199717
      ],
      [
        "▁itọju",
        -8.935889286425606
      ],
      [
        "▁paapaa",
        -8.935936231904538
      ],
      [
        "▁ibeere",
        -8.939088953882921
      ],
      [
        "▁ẹnì",
        -8.939212869061345
      ],
      [
        "▁orílè",
        -8.939621370202529
      ],
      [
        "▁G",
        -8.94203458638054
      ],
      [
        "▁Torí",
        -8.942110175499002
      ],
      [
        "▁Ogun",
        -8.9466769358043
      ],
      [
        "▁emi",
        -8.95303867941432
      ],
      [
        "▁dúró",
        -8.955349330582132
      ],
      [
        "▁lara",
        -8.957107395571683
      ],
      [
        "▁aṣọ",
        -8.959060764504635
      ],
      [
        "▁NI",
        -8.962983643572139
      ],
      [
        "▁foonu",
        -8.967680195600149
      ],
      [
        "▁R",
        -8.969850970940502
      ],
      [
        "▁dó",
        -8.971025180479714
      ],
      [
        "▁ja",
        -8.97319460502284
      ],
      [
        "▁data",
        -8.973771990816353
      ],
      [
        "sọgan",
        -8.975816223090463
      ],
      [
        "▁Àmọ́",
        -8.97619095704345
      ],
      [
        "▁ṣi",
        -8.978735195770549
      ],
      [
        "▁itan",
        -8.98076389321772
      ],
      [
        "je",
        -8.981580385841259
      ],
      [
        "ràn",
        -8.98279750493588
      ],
      [
        "▁ré",
        -8.984214580811702
      ],
      [
        "▁kun",
        -8.984439961774418
      ],
      [
        "▁só",
        -8.984563433408935
      ],
      [
        "▁Ninu",
        -8.985715759055841
      ],
      [
        "▁lẹyin",
        -8.987105027211928
      ],
      [
        "▁iwọ",
        -8.989509977443582
      ],
      [
        "▁orile",
        -8.996412288137737
      ],
      [
        "▁orílẹ̀",
        -8.999297216389788
      ],
      [
        "▁Ilé",
        -9.000486929471483
      ],
      [
        "▁ìfé",
        -9.001958596486055
      ],
      [
        "▁padà",
        -9.003728912617797
      ],
      [
        "yẹn",
        -9.007132951446096
      ],
      [
        "▁fẹẹ",
        -9.00748913687562
      ],
      [
        "▁free",
        -9.00768708782518
      ],
      [
        "▁ipò",
        -9.007798954405356
      ],
      [
        "▁okun",
        -9.010041244572914
      ],
      [
        "▁apẹrẹ",
        -9.010761750722375
      ],
      [
        "yi",
        -9.016565104642874
      ],
      [
        "Ń",
        -9.019086173346622
      ],
      [
        "▁láàárí",
        -9.019124220987417
      ],
      [
        "▁ipele",
        -9.019431968233455
      ],
      [
        "▁idibo",
        -9.021711431926342
      ],
      [
        "▁sìn",
        -9.023414516424667
      ],
      [
        "▁bẹ̀rẹ̀",
        -9.02353906291516
      ],
      [
        "ẹrọ",
        -9.027476731792508
      ],
      [
        "iwhe",
        -9.028490108006908
      ],
      [
        "▁kà",
        -9.031070644563515
      ],
      [
        "▁Ki",
        -9.031245560189545
      ],
      [
        "▁Iṣẹ",
        -9.03482727913594
      ],
      [
        "▁Wa",
        -9.035029674143974
      ],
      [
        "▁nigbagbogbo",
        -9.03610490700273
      ],
      [
        "▁níbi",
        -9.0366613397032
      ],
      [
        "▁ìdí",
        -9.037009810170236
      ],
      [
        "▁Nítorí",
        -9.037222547409552
      ],
      [
        "▁ṣalaye",
        -9.040351220686592
      ],
      [
        "▁daju",
        -9.04093180913508
      ],
      [
        "▁rọrun",
        -9.047384978588584
      ],
      [
        "▁soke",
        -9.048947009349364
      ],
      [
        "T",
        -9.049716810456728
      ],
      [
        "▁iṣeduro",
        -9.051791098759992
      ],
      [
        "▁ẹsẹ",
        -9.05446286718488
      ],
      [
        "▁gomina",
        -9.054546404307848
      ],
      [
        "▁fà",
        -9.055161222139088
      ],
      [
        "▁Pó",
        -9.055887383416094
      ],
      [
        "▁labẹ",
        -9.056084973146096
      ],
      [
        "E",
        -9.056836709781011
      ],
      [
        "▁ìwọ",
        -9.05752760659867
      ],
      [
        "lọ",
        -9.059527559017187
      ],
      [
        "▁ṣẹ",
        -9.059917145402109
      ],
      [
        "$",
        -9.06020225744332
      ],
      [
        "G",
        -9.061364617938738
      ],
      [
        "F",
        -9.064939285217417
      ],
      [
        "▁ẹ̀",
        -9.065771153960336
      ],
      [
        "▁ofurufu",
        -9.065968805468271
      ],
      [
        "▁online",
        -9.06601186402029
      ],
      [
        "▁dára",
        -9.0667375504635
      ],
      [
        "£",
        -9.067059287068174
      ],
      [
        "▁keji",
        -9.068682791645134
      ],
      [
        "▁gbigbe",
        -9.069395762372134
      ],
      [
        "bìnrin",
        -9.069936561844331
      ],
      [
        "▁nọmba",
        -9.074226473590992
      ],
      [
        "▁ṣaaju",
        -9.075005241869848
      ],
      [
        "▁ìsìn",
        -9.075336235402853
      ],
      [
        "▁apa",
        -9.079311863834809
      ],
      [
        "▁Wó",
        -9.08140900450878
      ],
      [
        "▁iriri",
        -9.081637393231508
      ],
      [
        "ja",
        -9.084961051183852
      ],
      [
        "kọ",
        -9.087690593250766
      ],
      [
        "▁bayii",
        -9.088393648346392
      ],
      [
        "▁tán",
        -9.091143303203465
      ],
      [
        "▁igi",
        -9.092158384859776
      ],
      [
        "▁olu",
        -9.094419293225334
      ],
      [
        "▁Ipinle",
        -9.094662837771804
      ],
      [
        "▁idagbasoke",
        -9.094665907292024
      ],
      [
        "ran",
        -9.09492454036213
      ],
      [
        "▁Oluwa",
        -9.095463460149602
      ],
      [
        "▁Tá",
        -9.09881197912204
      ],
      [
        "▁isalẹ",
        -9.099227679392046
      ],
      [
        "ńṣe",
        -9.10124246399372
      ],
      [
        "kun",
        -9.103257172082492
      ],
      [
        "▁F",
        -9.104025922267883
      ],
      [
        "▁kere",
        -9.106660101696876
      ],
      [
        "▁didara",
        -9.10974235985734
      ],
      [
        "▁eré",
        -9.113627343877043
      ],
      [
        "▁ṣà",
        -9.115452559730942
      ],
      [
        "▁ina",
        -9.11605763765648
      ],
      [
        "▁dájú",
        -9.11614020946729
      ],
      [
        "ẹ́lì",
        -9.116352992169686
      ],
      [
        "▁onibara",
        -9.121215585770646
      ],
      [
        "▁Ló",
        -9.121323121815584
      ],
      [
        "▁àmó",
        -9.122103173341426
      ],
      [
        "▁dọmọ",
        -9.123425537642618
      ],
      [
        "▁aṣa",
        -9.123654628590996
      ],
      [
        "▁for",
        -9.124173833605886
      ],
      [
        "▁oṣiṣẹ",
        -9.12449858826944
      ],
      [
        "lì",
        -9.126028844416302
      ],
      [
        "▁ayọkẹlẹ",
        -9.126538928254334
      ],
      [
        "ori",
        -9.12787343158889
      ],
      [
        "▁ileeṣẹ",
        -9.129714524962292
      ],
      [
        "▁igbesi",
        -9.130414186448396
      ],
      [
        "mo",
        -9.130970497625029
      ],
      [
        "▁orisun",
        -9.131297685149969
      ],
      [
        "▁Mi",
        -9.132202211969622
      ],
      [
        "▁kanna",
        -9.132523594640082
      ],
      [
        "▁Dubai",
        -9.133191680524677
      ],
      [
        "▁sínú",
        -9.133877146525617
      ],
      [
        "▁odun",
        -9.134118257679386
      ],
      [
        "▁hẹn",
        -9.13424369753396
      ],
      [
        "▁dáadá",
        -9.134334458571216
      ],
      [
        "▁ṣẹlẹ",
        -9.135567044268733
      ],
      [
        "tì",
        -9.135682342096876
      ],
      [
        "▁iho",
        -9.13591108212377
      ],
      [
        "▁ṣee",
        -9.14228487455492
      ],
      [
        "▁mì",
        -9.145544077968667
      ],
      [
        "▁otitọ",
        -9.146435998836692
      ],
      [
        "▁aṣẹ",
        -9.146992780339549
      ],
      [
        "WỌN",
        -9.148448216994362
      ],
      [
        "▁ọmọde",
        -9.154238310775773
      ],
      [
        "▁Èyí",
        -9.154405161513196
      ],
      [
        "▁ṣẹl",
        -9.154600710742082
      ],
      [
        "▁boya",
        -9.154803669741522
      ],
      [
        "▁fààn",
        -9.155607047112843
      ],
      [
        "▁iya",
        -9.156502998549175
      ],
      [
        "yà",
        -9.157193019425186
      ],
      [
        "▁Bawo",
        -9.159614166570575
      ],
      [
        "▁asopọ",
        -9.159696958779367
      ],
      [
        "▁òfin",
        -9.160232038520988
      ],
      [
        "▁ẹnu",
        -9.160463998828472
      ],
      [
        "▁igbimọ",
        -9.160484774678258
      ],
      [
        "Awọn",
        -9.161159357509208
      ],
      [
        "jọba",
        -9.162316163229926
      ],
      [
        "▁pẹ",
        -9.162379113705397
      ],
      [
        "▁Nínú",
        -9.163880598221589
      ],
      [
        "owo",
        -9.164220586038113
      ],
      [
        "▁sílẹ̀",
        -9.167090772217804
      ],
      [
        "▁káwọ",
        -9.16825133564537
      ],
      [
        "▁lai",
        -9.169195891481555
      ],
      [
        "▁Dá",
        -9.169376658900614
      ],
      [
        "▁já",
        -9.174531555529038
      ],
      [
        "▁tobi",
        -9.175234033903031
      ],
      [
        "▁ehe",
        -9.17554319532348
      ],
      [
        "▁oye",
        -9.17562677173566
      ],
      [
        "▁ìbéèr",
        -9.179946136276158
      ],
      [
        "▁atilẹyin",
        -9.181775560052538
      ],
      [
        "▁Ìdí",
        -9.182404949579205
      ],
      [
        "▁Ọjọ",
        -9.182538272882931
      ],
      [
        "▁ajo",
        -9.185799165209668
      ],
      [
        "▁Na",
        -9.186293042913515
      ],
      [
        "▁iṣakoso",
        -9.18965455366316
      ],
      [
        "▁idogo",
        -9.189761926185708
      ],
      [
        "▁atunṣe",
        -9.190732483173392
      ],
      [
        "▁oke",
        -9.191725717175247
      ],
      [
        "▁tawọn",
        -9.19229324864128
      ],
      [
        "▁lasiko",
        -9.196007945221352
      ],
      [
        "▁ìròyìn",
        -9.196869545967449
      ],
      [
        "rí",
        -9.19751942454544
      ],
      [
        "▁olumulo",
        -9.198261756214764
      ],
      [
        "▁jó",
        -9.19895098950096
      ],
      [
        "▁yatọ",
        -9.19982243584051
      ],
      [
        "#",
        -9.200855709463957
      ],
      [
        "▁ìgbésí",
        -9.206344466758244
      ],
      [
        "▁lọjọ",
        -9.207047065890288
      ],
      [
        "▁olori",
        -9.207418326750826
      ],
      [
        "▁ikú",
        -9.209249281450992
      ],
      [
        "▁ilera",
        -9.210646584397445
      ],
      [
        "▁Lé",
        -9.212238332651744
      ],
      [
        "▁tindo",
        -9.21575803097567
      ],
      [
        "▁pọ̀",
        -9.215934736301552
      ],
      [
        "us",
        -9.21916724484778
      ],
      [
        "▁gẹgẹbi",
        -9.220249251614453
      ],
      [
        "▁ala",
        -9.22060093446617
      ],
      [
        "▁ọrẹ",
        -9.2220926137743
      ],
      [
        "▁kọọkan",
        -9.224598144523664
      ],
      [
        "jọ",
        -9.22526489647412
      ],
      [
        "▁apẹẹrẹ",
        -9.225681699114832
      ],
      [
        "▁nipinlẹ",
        -9.228390842184393
      ],
      [
        "▁ajọ",
        -9.231841031268042
      ],
      [
        "sí",
        -9.23286461107002
      ],
      [
        "▁idiyele",
        -9.234293620418953
      ],
      [
        "▁akiyesi",
        -9.234738742008505
      ],
      [
        "▁ṣeto",
        -9.235731897420033
      ],
      [
        "▁gbọ́",
        -9.236651376047178
      ],
      [
        "▁Buhari",
        -9.239317043805112
      ],
      [
        "tọn",
        -9.239529247023688
      ],
      [
        "▁W",
        -9.241056545974269
      ],
      [
        "▁opo",
        -9.241664336037578
      ],
      [
        "▁ipinnu",
        -9.242504863260171
      ],
      [
        "▁agbára",
        -9.243010440389575
      ],
      [
        "▁sun",
        -9.2453392388242
      ],
      [
        "▁oúnjẹ",
        -9.245540135235462
      ],
      [
        "▁ìlànà",
        -9.246466579350315
      ],
      [
        "z",
        -9.248660388671576
      ],
      [
        "▁àrùn",
        -9.250457199677562
      ],
      [
        "▁rán",
        -9.251178543255833
      ],
      [
        "▁miran",
        -9.251788910590236
      ],
      [
        "▁sọ̀rọ̀",
        -9.252278635626464
      ],
      [
        "run",
        -9.253152225595032
      ],
      [
        "▁tẹsiwaju",
        -9.255737281192854
      ],
      [
        "▁deede",
        -9.25815853027367
      ],
      [
        "tí",
        -9.258422509780216
      ],
      [
        "▁akoonu",
        -9.26153927591753
      ],
      [
        "▁Wọ́n",
        -9.265047141669292
      ],
      [
        "▁itatẹtẹ",
        -9.269251633042025
      ],
      [
        "mẹ",
        -9.271188163639705
      ],
      [
        "▁ẹmi",
        -9.271718324366686
      ],
      [
        "pinnu",
        -9.273456032025171
      ],
      [
        "▁ayika",
        -9.273459019791924
      ],
      [
        "▁iṣoro",
        -9.278082046214404
      ],
      [
        "▁kejì",
        -9.27840131316748
      ],
      [
        "•",
        -9.279519282576814
      ],
      [
        "▁tu",
        -9.280980789108057
      ],
      [
        "▁egbe",
        -9.28099138282935
      ],
      [
        "▁University",
        -9.28251832737737
      ],
      [
        "▁sugbo",
        -9.283389484434831
      ],
      [
        "▁kede",
        -9.28452211107324
      ],
      [
        "▁Wo",
        -9.284678903223451
      ],
      [
        "▁dáa",
        -9.285372761360431
      ],
      [
        "▁gbọn",
        -9.285824167175264
      ],
      [
        "▁mejeeji",
        -9.286197630558744
      ],
      [
        "▁ọ̀pọ̀",
        -9.291485713693454
      ],
      [
        "▁sún",
        -9.293080517472973
      ],
      [
        "▁dun",
        -9.294938155882464
      ],
      [
        "▁apapọ",
        -9.296271653970416
      ],
      [
        "▁oja",
        -9.298059367460525
      ],
      [
        "▁wàá",
        -9.299927114183316
      ],
      [
        "C",
        -9.302704968769794
      ],
      [
        "▁Sátán",
        -9.306234964278955
      ],
      [
        "▁àmì",
        -9.306909174847895
      ],
      [
        "▁ounjẹ",
        -9.30700928022454
      ],
      [
        "▁Gomina",
        -9.308362302608238
      ],
      [
        "▁Kini",
        -9.309640176532952
      ],
      [
        "▁Ẹlẹ́rì",
        -9.310051132065292
      ],
      [
        "lá",
        -9.310813938492052
      ],
      [
        "▁tele",
        -9.312762775884163
      ],
      [
        "▁kù",
        -9.314319521405272
      ],
      [
        "▁lagbara",
        -9.314984429325406
      ],
      [
        "▁gbiyanju",
        -9.316292600030271
      ],
      [
        "▁iku",
        -9.316350594841731
      ],
      [
        "▁aṣayan",
        -9.318268790435994
      ],
      [
        "bù",
        -9.31829803727383
      ],
      [
        "wutu",
        -9.318438143962364
      ],
      [
        "▁túbò",
        -9.318595790532903
      ],
      [
        "ọ́",
        -9.320946452309206
      ],
      [
        "áyà",
        -9.321967121544548
      ],
      [
        "yin",
        -9.323388541368145
      ],
      [
        "▁wọle",
        -9.323996974795463
      ],
      [
        "ṣẹ",
        -9.324567252318555
      ],
      [
        "▁igbesẹ",
        -9.324821548518088
      ],
      [
        "▁yá",
        -9.32504904082688
      ],
      [
        "▁ipilẹ",
        -9.325471235722633
      ],
      [
        "Ẹ",
        -9.3269288171879
      ],
      [
        "▁tẹle",
        -9.329759820106045
      ],
      [
        "ona",
        -9.330834445502145
      ],
      [
        "▁New",
        -9.330885046244925
      ],
      [
        "▁loju",
        -9.331179513587228
      ],
      [
        "▁opin",
        -9.332676763950891
      ],
      [
        "▁H",
        -9.33288646916794
      ],
      [
        "▁èmi",
        -9.33483397934856
      ],
      [
        "▁oṣelu",
        -9.33539255072116
      ],
      [
        "▁ṣẹlẹ̀",
        -9.33626278673751
      ],
      [
        "▁ọsẹ",
        -9.337694820876916
      ],
      [
        "jà",
        -9.339600689681156
      ],
      [
        "▁hack",
        -9.341485658756245
      ],
      [
        "▁ifẹ",
        -9.342525136425689
      ],
      [
        "▁ila",
        -9.34297865818024
      ],
      [
        "▁lẹ́yìn",
        -9.343207833279722
      ],
      [
        "yìn",
        -9.344770934843886
      ],
      [
        "▁lá",
        -9.34567625088679
      ],
      [
        "▁idaniloju",
        -9.34638322487884
      ],
      [
        "▁Olu",
        -9.346714640966368
      ],
      [
        "▁yàn",
        -9.347600027608216
      ],
      [
        "▁iyipada",
        -9.348245097527697
      ],
      [
        "▁kikun",
        -9.348616064796246
      ],
      [
        "▁Alakoso",
        -9.3519546876486
      ],
      [
        "ṣiṣe",
        -9.354820791806448
      ],
      [
        "ẹ́",
        -9.355698061704675
      ],
      [
        "▁ṣàlàyé",
        -9.35643211501788
      ],
      [
        "▁àgbà",
        -9.357047953966385
      ],
      [
        "▁oniwe",
        -9.35729807449892
      ],
      [
        "P",
        -9.357490658579584
      ],
      [
        "▁Oṣù",
        -9.35974399120844
      ],
      [
        "esi",
        -9.360163535124718
      ],
      [
        "ẹri",
        -9.360393727893314
      ],
      [
        "▁aarẹ",
        -9.360876303890311
      ],
      [
        "▁ojo",
        -9.361229913650854
      ],
      [
        "▁apá",
        -9.36256679793797
      ],
      [
        "▁ibamu",
        -9.363237024675216
      ],
      [
        "ẹkọ",
        -9.363819183120537
      ],
      [
        "▁tatuu",
        -9.366504143048768
      ],
      [
        "▁ọpọ",
        -9.369988284526952
      ],
      [
        "▁Lo",
        -9.373327738873556
      ],
      [
        "▁Free",
        -9.373389535337449
      ],
      [
        "▁ẹ̀kọ́",
        -9.374692984629396
      ],
      [
        "▁nífè",
        -9.378322255894725
      ],
      [
        "▁bò",
        -9.379131325399673
      ],
      [
        "More",
        -9.38362392924996
      ],
      [
        "▁ayẹwo",
        -9.38466604926469
      ],
      [
        "fídì",
        -9.385840281246027
      ],
      [
        "▁láwọ",
        -9.386041402475945
      ],
      [
        "▁Emi",
        -9.387553144058598
      ],
      [
        "▁epo",
        -9.388381606984153
      ],
      [
        "▁Ta",
        -9.388599016962369
      ],
      [
        "▁wù",
        -9.38930467124743
      ],
      [
        "▁wáyé",
        -9.390029662306937
      ],
      [
        "▁whenue",
        -9.391461454105626
      ],
      [
        "▁afihan",
        -9.39250318046367
      ],
      [
        "▁Google",
        -9.394394497460445
      ],
      [
        "▁ṣẹda",
        -9.395891598608411
      ],
      [
        "▁Máa",
        -9.396213695899371
      ],
      [
        "aye",
        -9.401331935192092
      ],
      [
        "▁nílò",
        -9.402422086649178
      ],
      [
        "idije",
        -9.4031302886735
      ],
      [
        "▁ìyàwó",
        -9.403219077702117
      ],
      [
        "▁iyawo",
        -9.403774671079052
      ],
      [
        "paṣipaarọ",
        -9.405917404295202
      ],
      [
        "▁oko",
        -9.406355823429072
      ],
      [
        "▁pod",
        -9.408347181382585
      ],
      [
        "dọ",
        -9.408591375503066
      ],
      [
        "lẹ̀",
        -9.409112337103084
      ],
      [
        "▁ẹsun",
        -9.41001719592095
      ],
      [
        "▁kedere",
        -9.410053481994222
      ],
      [
        "▁Mobile",
        -9.412492898275518
      ],
      [
        "▁ayẹyẹ",
        -9.415603585342565
      ],
      [
        "▁osu",
        -9.415706972073115
      ],
      [
        "rárá",
        -9.41744972480697
      ],
      [
        "▁lẹhinna",
        -9.417694331755222
      ],
      [
        "▁yio",
        -9.417700807324165
      ],
      [
        "▁tita",
        -9.418793702101008
      ],
      [
        "rò",
        -9.420484167971695
      ],
      [
        "▁gidigidi",
        -9.420735717740843
      ],
      [
        "▁yà",
        -9.42088865604539
      ],
      [
        "▁Kó",
        -9.421432557883342
      ],
      [
        "▁bàbá",
        -9.4221177814049
      ],
      [
        "▁Ká",
        -9.424668221527352
      ],
      [
        "▁mẹrin",
        -9.425132031039194
      ],
      [
        "▁ìmò",
        -9.425297565830002
      ],
      [
        "▁Ísíré",
        -9.425956181889132
      ],
      [
        "▁aya",
        -9.428583791142357
      ],
      [
        "▁Gba",
        -9.429101042317328
      ],
      [
        "▁lágbára",
        -9.429302255123057
      ],
      [
        "W",
        -9.431663786615134
      ],
      [
        "▁sile",
        -9.432521875150238
      ],
      [
        "▁Bá",
        -9.432901486825616
      ],
      [
        "▁by",
        -9.433877633947311
      ],
      [
        "▁aami",
        -9.434725656574408
      ],
      [
        "Mo",
        -9.43520117508397
      ],
      [
        "▁gbangba",
        -9.435569428054762
      ],
      [
        "▁Yorùbá",
        -9.435633760040442
      ],
      [
        "▁pato",
        -9.436723193214023
      ],
      [
        "▁oriṣiriṣi",
        -9.43796174145428
      ],
      [
        "▁rún",
        -9.438534593409107
      ],
      [
        "▁mímó",
        -9.440228835870638
      ],
      [
        "▁apakan",
        -9.440357610049167
      ],
      [
        "man",
        -9.446056013552834
      ],
      [
        "▁ìgbàgbó",
        -9.446139403581968
      ],
      [
        "▁tẹ̀",
        -9.447221749710335
      ],
      [
        "▁sé",
        -9.450375919641589
      ],
      [
        "▁kiri",
        -9.454252227787864
      ],
      [
        "▁hẹ",
        -9.45432695557839
      ],
      [
        "gbin",
        -9.456369609760904
      ],
      [
        "▁ija",
        -9.457972645550504
      ],
      [
        "▁ilọsiwaju",
        -9.458380549976498
      ],
      [
        "▁fihan",
        -9.458753466380442
      ],
      [
        "▁laisi",
        -9.460465449212542
      ],
      [
        "▁pipe",
        -9.46125585962888
      ],
      [
        "gbé",
        -9.461361516374868
      ],
      [
        "ṣé",
        -9.461662364006466
      ],
      [
        "▁ita",
        -9.466420774134685
      ],
      [
        "▁yara",
        -9.46697619533773
      ],
      [
        "▁kẹta",
        -9.470541229658204
      ],
      [
        "▁ìtàn",
        -9.473201408694996
      ],
      [
        "▁díè",
        -9.47471371337606
      ],
      [
        "▁àmọ́",
        -9.475923756492849
      ],
      [
        "▁láyé",
        -9.47664153889557
      ],
      [
        "ṣiṣé",
        -9.479756546999903
      ],
      [
        "he",
        -9.479890630899668
      ],
      [
        "▁laaye",
        -9.483612582861385
      ],
      [
        "▁sá",
        -9.483745331234331
      ],
      [
        "▁idanwo",
        -9.484069284607472
      ],
      [
        "▁NIPA",
        -9.484200569190037
      ],
      [
        "▁pàápàá",
        -9.486520387787388
      ],
      [
        "R",
        -9.48721007248623
      ],
      [
        "▁gẹ",
        -9.487596938011029
      ],
      [
        "▁dabi",
        -9.48765338100038
      ],
      [
        "rákùnrin",
        -9.489150624430298
      ],
      [
        "▁Plus",
        -9.489886433864852
      ],
      [
        "ge",
        -9.490319721210245
      ],
      [
        "▁pin",
        -9.49214348590352
      ],
      [
        "▁béèr",
        -9.492564642974742
      ],
      [
        "ọrọ",
        -9.493384421163093
      ],
      [
        "rú",
        -9.49465273391766
      ],
      [
        "▁arun",
        -9.496155959961714
      ],
      [
        "▁Eto",
        -9.49827108052453
      ],
      [
        "▁dagba",
        -9.498365696143969
      ],
      [
        "▁ṣé",
        -9.498413032674293
      ],
      [
        "sunnu",
        -9.4984148471351
      ],
      [
        "▁Ìtàn",
        -9.498681564053657
      ],
      [
        "▁Nitori",
        -9.499659760905852
      ],
      [
        "▁kọjá",
        -9.49987512922112
      ],
      [
        "▁iyẹn",
        -9.50309461525496
      ],
      [
        "▁Ẹni",
        -9.504074402423091
      ],
      [
        "▁kaadi",
        -9.505609233886307
      ],
      [
        "▁níbè",
        -9.50692289050506
      ],
      [
        "go",
        -9.51034859407268
      ],
      [
        "▁Nigeria",
        -9.511155073885062
      ],
      [
        "J",
        -9.51324440088057
      ],
      [
        "▁lakoko",
        -9.514516065905404
      ],
      [
        "▁gbàdúr",
        -9.51456182195993
      ],
      [
        "▁marun",
        -9.515357754231491
      ],
      [
        "▁nyí",
        -9.516707382138648
      ],
      [
        "▁bà",
        -9.517182381400202
      ],
      [
        "▁gbigba",
        -9.517656335368702
      ],
      [
        "▁idaraya",
        -9.517773809971793
      ],
      [
        "▁ẹtọ",
        -9.519733290450995
      ],
      [
        "▁iwadii",
        -9.52085057686771
      ],
      [
        "▁wakat",
        -9.520916314028716
      ],
      [
        "gbà",
        -9.52164484903814
      ],
      [
        "▁Ade",
        -9.523041429658305
      ],
      [
        "▁sori",
        -9.525344531212454
      ],
      [
        "▁enẹ",
        -9.52536974675728
      ],
      [
        "àdúrà",
        -9.52596780514919
      ],
      [
        "▁ọ̀nà",
        -9.526204844865063
      ],
      [
        "▁Nigbati",
        -9.52991917707963
      ],
      [
        "fun",
        -9.531365905401003
      ],
      [
        "▁Pété",
        -9.531413806531829
      ],
      [
        "▁iwaju",
        -9.532556245449271
      ],
      [
        "▁àṣẹ",
        -9.53256802297173
      ],
      [
        "▁mimọ",
        -9.53412387249503
      ],
      [
        "wó",
        -9.53461065388614
      ],
      [
        "▁nuhe",
        -9.535205827928946
      ],
      [
        "▁APC",
        -9.536608318240834
      ],
      [
        "▁rara",
        -9.53669320594682
      ],
      [
        "▁ewu",
        -9.536868396555173
      ],
      [
        "▁ibo",
        -9.53698316910072
      ],
      [
        "▁apejuwe",
        -9.537736672775631
      ],
      [
        "▁igbasilẹ",
        -9.539678974673238
      ],
      [
        "▁dandan",
        -9.541738293358184
      ],
      [
        "▁orisirisi",
        -9.54198948460087
      ],
      [
        "▁ipade",
        -9.544224410951742
      ],
      [
        "▁sáwọ",
        -9.546588440310597
      ],
      [
        "dun",
        -9.5486251822183
      ],
      [
        "▁aṣoju",
        -9.549120404318806
      ],
      [
        "tó",
        -9.551797964649907
      ],
      [
        "▁Aare",
        -9.55216116688971
      ],
      [
        "▁faili",
        -9.55270610619286
      ],
      [
        "▁Mu",
        -9.554712406899728
      ],
      [
        "▁Jòhán",
        -9.55691139202393
      ],
      [
        "ọna",
        -9.562043064847073
      ],
      [
        "▁nífẹ̀ẹ́",
        -9.563610292804215
      ],
      [
        "▁Bakan",
        -9.563770034385216
      ],
      [
        "▁ìjọsìn",
        -9.56488843096124
      ],
      [
        "bóyá",
        -9.568579306412136
      ],
      [
        "▁iṣe",
        -9.571760081677745
      ],
      [
        "▁ipese",
        -9.57219108320188
      ],
      [
        "▁fúnra",
        -9.574710900749428
      ],
      [
        "bu",
        -9.575675713356093
      ],
      [
        "www",
        -9.576025274085262
      ],
      [
        "▁Pa",
        -9.576118997677426
      ],
      [
        "òótó",
        -9.576370199450364
      ],
      [
        "lóye",
        -9.576773292333684
      ],
      [
        "▁koko",
        -9.577096896150293
      ],
      [
        "▁dún",
        -9.57773491550638
      ],
      [
        "▁loun",
        -9.577915762175293
      ],
      [
        "▁iṣelọpọ",
        -9.57997169118017
      ],
      [
        "▁rántí",
        -9.580353464629871
      ],
      [
        "▁bọọlu",
        -9.580400297304944
      ],
      [
        "▁Istanbul",
        -9.580450924899209
      ],
      [
        "▁rìn",
        -9.582329339356248
      ],
      [
        "▁sábà",
        -9.5834136975745
      ],
      [
        "▁gbádùn",
        -9.583626991803708
      ],
      [
        "áfíà",
        -9.586204570041064
      ],
      [
        "▁oogun",
        -9.586694323299673
      ],
      [
        "▁Mímó",
        -9.58694472093204
      ],
      [
        "▁bójú",
        -9.588320117620084
      ],
      [
        "yì",
        -9.590222841336628
      ],
      [
        "▁ẹbi",
        -9.591285415813678
      ],
      [
        "▁ajeseku",
        -9.592109612023169
      ],
      [
        "ho",
        -9.59268336959977
      ],
      [
        "▁aṣááj",
        -9.593630567665077
      ],
      [
        "▁atawọn",
        -9.594328225003968
      ],
      [
        "▁obi",
        -9.594981962229516
      ],
      [
        "▁Iwọn",
        -9.599434661675868
      ],
      [
        "▁tíì",
        -9.599630066105378
      ],
      [
        "dún",
        -9.599964075557548
      ],
      [
        "yan",
        -9.600045988288327
      ],
      [
        "▁ẹgbẹrun",
        -9.60004719744097
      ],
      [
        "▁ìyá",
        -9.602261015485023
      ],
      [
        "ati",
        -9.603181006286594
      ],
      [
        "▁Ilana",
        -9.603643438873238
      ],
      [
        "▁ṣiṣẹ́",
        -9.603762078638152
      ],
      [
        "▁àwòrán",
        -9.603952792502966
      ],
      [
        "▁opopona",
        -9.605327172106769
      ],
      [
        "▁rọrù",
        -9.605914874986412
      ],
      [
        "be",
        -9.60676333438977
      ],
      [
        "▁Bákan",
        -9.60688698849591
      ],
      [
        "▁Ọpọlọpọ",
        -9.607767496494208
      ],
      [
        "▁túmò",
        -9.608322161587488
      ],
      [
        "▁Nitorina",
        -9.608869510217088
      ],
      [
        "▁oní",
        -9.609197295617008
      ],
      [
        "▁pelu",
        -9.61090697920034
      ],
      [
        "yetọ",
        -9.611021591681046
      ],
      [
        "▁tilè",
        -9.612344634707792
      ],
      [
        "síwájú",
        -9.612845379151532
      ],
      [
        "▁kaakiri",
        -9.612989615947194
      ],
      [
        "▁abajade",
        -9.613130058729828
      ],
      [
        "▁wulo",
        -9.613828902682965
      ],
      [
        "▁Nipa",
        -9.615260582363565
      ],
      [
        "▁sè",
        -9.615491543809553
      ],
      [
        "▁Owo",
        -9.617184421416136
      ],
      [
        "ve",
        -9.617409116526575
      ],
      [
        "▁Amẹrika",
        -9.618715118771853
      ],
      [
        "▁dona",
        -9.619578914702863
      ],
      [
        "▁ẹda",
        -9.62029159680562
      ],
      [
        "▁La",
        -9.621875856367875
      ],
      [
        "▁bù",
        -9.622889205018398
      ],
      [
        "▁ìpàdé",
        -9.622906101551711
      ],
      [
        "▁òní",
        -9.622925078591251
      ],
      [
        "▁towe",
        -9.623200773773684
      ],
      [
        "▁oro",
        -9.625595995943732
      ],
      [
        "▁Re",
        -9.62611914045114
      ],
      [
        "▁túbọ̀",
        -9.627511882913913
      ],
      [
        "tọju",
        -9.628019449830392
      ],
      [
        "▁ipari",
        -9.628722531999026
      ],
      [
        "▁fawọn",
        -9.62952672991642
      ],
      [
        "▁alakoso",
        -9.631074319810038
      ],
      [
        "▁alàgbà",
        -9.633170655077954
      ],
      [
        "▁ṣí",
        -9.634376051709252
      ],
      [
        "▁gige",
        -9.634700439884044
      ],
      [
        "▁ẹka",
        -9.635053971544789
      ],
      [
        "▁sórí",
        -9.63602340773611
      ],
      [
        "látinú",
        -9.636420802671749
      ],
      [
        "▁araalu",
        -9.64256441856926
      ],
      [
        "▁lọọ",
        -9.644499267637924
      ],
      [
        "▁Yi",
        -9.644715104719388
      ],
      [
        "ese",
        -9.644717610837311
      ],
      [
        "irin",
        -9.646133643323331
      ],
      [
        "▁ifihan",
        -9.64621271167691
      ],
      [
        "kì",
        -9.646442879033945
      ],
      [
        "▁pade",
        -9.647643238805998
      ],
      [
        "▁fila",
        -9.6479115053339
      ],
      [
        "▁Y",
        -9.64944613776511
      ],
      [
        "▁NAB",
        -9.64991681647298
      ],
      [
        "H",
        -9.65010104533268
      ],
      [
        "▁Kan",
        -9.651696121030046
      ],
      [
        "ọ̀",
        -9.65198473748772
      ],
      [
        "▁gẹ́gẹ́",
        -9.652429827954096
      ],
      [
        "▁kẹ",
        -9.653365068628196
      ],
      [
        "▁ṣafihan",
        -9.653453956402757
      ],
      [
        "▁Se",
        -9.653961005840934
      ],
      [
        "▁òtító",
        -9.65674292557639
      ],
      [
        "▁Ìpínlẹ",
        -9.657320558014812
      ],
      [
        "▁ibudo",
        -9.657415390559567
      ],
      [
        "▁Pọ́ọ̀lù",
        -9.658273398484427
      ],
      [
        "▁fojú",
        -9.659406803177957
      ],
      [
        "▁jí",
        -9.66206818312799
      ],
      [
        "▁síté",
        -9.662287122050367
      ],
      [
        "▁niluu",
        -9.663823715893017
      ],
      [
        "▁bu",
        -9.664666888577386
      ],
      [
        "▁Tọn",
        -9.66476295308936
      ],
      [
        "fa",
        -9.667298494846456
      ],
      [
        "gbọ́dọ̀",
        -9.667632488231751
      ],
      [
        "ṣinṣin",
        -9.66931844050656
      ],
      [
        "▁darí",
        -9.670866358677298
      ],
      [
        "▁aṣeyọri",
        -9.672203929804631
      ],
      [
        "wọ",
        -9.672673219457574
      ],
      [
        "▁Di",
        -9.673879334981146
      ],
      [
        "▁idajọ",
        -9.674297215367805
      ],
      [
        "▁Afirika",
        -9.67521761056739
      ],
      [
        "pada",
        -9.675457420004742
      ],
      [
        "▁ibere",
        -9.675591237201624
      ],
      [
        "▁dàgbà",
        -9.677773931543308
      ],
      [
        "▁Júù",
        -9.678094892812084
      ],
      [
        "▁wu",
        -9.680404562097667
      ],
      [
        "▁sita",
        -9.680948243533017
      ],
      [
        "▁foju",
        -9.681817347660909
      ],
      [
        "Ka",
        -9.682299115753436
      ],
      [
        "▁software",
        -9.682579989878835
      ],
      [
        "▁Ibi",
        -9.682593548131898
      ],
      [
        "▁wahala",
        -9.683447311797126
      ],
      [
        "ile",
        -9.683968203156455
      ],
      [
        "▁Ṣiṣe",
        -9.684544361446155
      ],
      [
        "▁Inú",
        -9.684579638750604
      ],
      [
        "Ì",
        -9.684654397619775
      ],
      [
        "▁lodi",
        -9.685602754452756
      ],
      [
        "▁tilẹ",
        -9.685637564176544
      ],
      [
        "ata",
        -9.6862736974726
      ],
      [
        "▁dide",
        -9.687850103843408
      ],
      [
        "▁mobile",
        -9.688796655138573
      ],
      [
        "ore",
        -9.690630428467044
      ],
      [
        "▁ẹnikẹni",
        -9.69088837106269
      ],
      [
        "▁media",
        -9.691259989859116
      ],
      [
        "pin",
        -9.69221985689497
      ],
      [
        "pẹlu",
        -9.694912859418228
      ],
      [
        "▁Bonus",
        -9.69836802227286
      ],
      [
        "▁BBC",
        -9.698495289838116
      ],
      [
        "▁Ara",
        -9.698617290324297
      ],
      [
        "▁ìfẹ́",
        -9.700532360089234
      ],
      [
        "▁ibaraẹnisọrọ",
        -9.7025152843466
      ],
      [
        "▁ẹnikan",
        -9.703241287013205
      ],
      [
        "▁ẹran",
        -9.703682257841276
      ],
      [
        "▁lẹpo",
        -9.70402126668464
      ],
      [
        "▁Sibẹsib",
        -9.705279708221893
      ],
      [
        "▁mẹh",
        -9.706045319949633
      ],
      [
        "▁Rẹ",
        -9.70705683112201
      ],
      [
        "▁nlo",
        -9.710522291373955
      ],
      [
        "▁tòótó",
        -9.710905867401198
      ],
      [
        "▁Al",
        -9.711656814986972
      ],
      [
        "▁iyara",
        -9.711999626718484
      ],
      [
        "▁ṣó",
        -9.712275051982733
      ],
      [
        "▁àṣà",
        -9.712372571262712
      ],
      [
        "ha",
        -9.71311536041854
      ],
      [
        "▁ẹgbẹ́",
        -9.71385129828167
      ],
      [
        "▁àkó",
        -9.717503866818369
      ],
      [
        "▁Tinubu",
        -9.718681314517031
      ],
      [
        "▁burúkú",
        -9.718893485111202
      ],
      [
        "▁ọpa",
        -9.719497098517827
      ],
      [
        "▁Ọ̀rọ̀",
        -9.720289532821893
      ],
      [
        "kú",
        -9.721970374954282
      ],
      [
        "▁adehun",
        -9.72237427024359
      ],
      [
        "▁http",
        -9.723266636342307
      ],
      [
        "gan",
        -9.72422865792888
      ],
      [
        "bàa",
        -9.724900126637149
      ],
      [
        "X",
        -9.725720111849506
      ],
      [
        "▁ibẹrẹ",
        -9.725900192254889
      ],
      [
        "▁ṣoṣo",
        -9.729390001252222
      ],
      [
        "▁loni",
        -9.731236178499865
      ],
      [
        "▁Online",
        -9.731508836526237
      ],
      [
        "▁ẹranko",
        -9.732229976406076
      ],
      [
        "▁iṣiro",
        -9.732840230085731
      ],
      [
        "▁amọ",
        -9.734172206854456
      ],
      [
        "zan",
        -9.734293486254384
      ],
      [
        "▁funfun",
        -9.734557437660984
      ],
      [
        "▁Lẹhin",
        -9.735011570104293
      ],
      [
        "sì",
        -9.73525045653663
      ],
      [
        "▁akojọ",
        -9.736289885907492
      ],
      [
        "▁Home",
        -9.737622487054672
      ],
      [
        "▁Section",
        -9.738448402641133
      ],
      [
        "▁Iwe",
        -9.739162273609368
      ],
      [
        "▁iyatọ",
        -9.739959484656056
      ],
      [
        "▁yè",
        -9.740063494134018
      ],
      [
        "▁MO",
        -9.740498645073876
      ],
      [
        "▁dè",
        -9.741004963903134
      ],
      [
        "▁Jé",
        -9.743501089938237
      ],
      [
        "▁Aarẹ",
        -9.744078810415315
      ],
      [
        "ní",
        -9.746039964127494
      ],
      [
        "▁ipinle",
        -9.748165170666685
      ],
      [
        "▁Imọ",
        -9.751434079547227
      ],
      [
        "▁with",
        -9.75283712736584
      ],
      [
        "▁Mós",
        -9.753242033886425
      ],
      [
        "▁tiẹ̀",
        -9.754144336926668
      ],
      [
        "co",
        -9.754705102699138
      ],
      [
        "▁kikọ",
        -9.755024530214056
      ],
      [
        "▁iwájú",
        -9.75503983289856
      ],
      [
        "▁lónìí",
        -9.755213300914098
      ],
      [
        "▁Ọna",
        -9.755697016388954
      ],
      [
        "▁Láti",
        -9.75720207212782
      ],
      [
        "▁orílẹ",
        -9.757668558776489
      ],
      [
        "▁gbẹtọ",
        -9.757725395521744
      ],
      [
        "▁ẹ̀mí",
        -9.758142659009264
      ],
      [
        "bí",
        -9.758365877383946
      ],
      [
        "úùkù",
        -9.759038814407209
      ],
      [
        "▁nile",
        -9.75922307374353
      ],
      [
        "▁parí",
        -9.759967216532148
      ],
      [
        "▁wiwa",
        -9.76053267822152
      ],
      [
        "rẹ",
        -9.761152178835992
      ],
      [
        "▁Ìgbà",
        -9.76143600967377
      ],
      [
        "▁ìhìn",
        -9.76168261274937
      ],
      [
        "▁ṣie",
        -9.762056080471094
      ],
      [
        "▁United",
        -9.762964913657704
      ],
      [
        "▁tumọ",
        -9.763374680651848
      ],
      [
        "▁gangan",
        -9.763653313534542
      ],
      [
        "▁méjèèjì",
        -9.764038175635404
      ],
      [
        "▁atijọ",
        -9.765371040005862
      ],
      [
        "oògùn",
        -9.766566068906627
      ],
      [
        "▁àjọṣe",
        -9.767661581819706
      ],
      [
        "▁ọpọlọ",
        -9.767963909284726
      ],
      [
        "▁dudu",
        -9.768593789801622
      ],
      [
        "▁dáhùn",
        -9.769089579510004
      ],
      [
        "▁Jẹ",
        -9.769964426066505
      ],
      [
        "▁kika",
        -9.772168228415648
      ],
      [
        "bọ",
        -9.776118452651096
      ],
      [
        "▁ṣíṣe",
        -9.776433875988117
      ],
      [
        "▁síbè",
        -9.77774927333962
      ],
      [
        "▁ohunkohun",
        -9.777889563837803
      ],
      [
        "▁Arákùnrin",
        -9.778544766428553
      ],
      [
        "▁igbadun",
        -9.77902739512933
      ],
      [
        "▁Le",
        -9.779494289144012
      ],
      [
        "▁Bayi",
        -9.779646913550488
      ],
      [
        "▁orilẹede",
        -9.780041808354166
      ],
      [
        "▁that",
        -9.78265956588368
      ],
      [
        "▁àlà",
        -9.782742634622428
      ],
      [
        "▁Kód",
        -9.783013199481273
      ],
      [
        "▁hù",
        -9.783143910258058
      ],
      [
        "▁Bibl",
        -9.783402240937695
      ],
      [
        "▁China",
        -9.785696392474016
      ],
      [
        "òótọ́",
        -9.78600086340887
      ],
      [
        "▁Róòmù",
        -9.786245048555504
      ],
      [
        "▁asiko",
        -9.786726144794358
      ],
      [
        "fin",
        -9.78679279602154
      ],
      [
        "▁ìgbéyàw",
        -9.78980843513475
      ],
      [
        "▁Europe",
        -9.789849414947954
      ],
      [
        "▁Be",
        -9.790029943940336
      ],
      [
        "kò",
        -9.790354979522624
      ],
      [
        "ẹniti",
        -9.791844917153073
      ],
      [
        "▁V",
        -9.792956082216325
      ],
      [
        "▁apo",
        -9.792971884753817
      ],
      [
        "▁ọló",
        -9.794397561459844
      ],
      [
        "▁irun",
        -9.794494240875098
      ],
      [
        "gùn",
        -9.795754479037052
      ],
      [
        "▁gbè",
        -9.795983745571595
      ],
      [
        "▁tú",
        -9.79622209626639
      ],
      [
        "▁ife",
        -9.79633500366211
      ],
      [
        "▁U",
        -9.79877313829731
      ],
      [
        "▁ṣááj",
        -9.799440370646431
      ],
      [
        "▁Iho",
        -9.801138988765116
      ],
      [
        "▁PDP",
        -9.801149734710462
      ],
      [
        "▁ewọ",
        -9.80155132375649
      ],
      [
        "▁iṣan",
        -9.80217461550159
      ],
      [
        "du",
        -9.802251164699914
      ],
      [
        "ẹ̀",
        -9.802344808820036
      ],
      [
        "▁Ẹgbẹ",
        -9.802437196313182
      ],
      [
        "▁sise",
        -9.803271979815513
      ],
      [
        "àní",
        -9.803786544256283
      ],
      [
        "▁titẹ",
        -9.804070012809468
      ],
      [
        "▁tọkọtaya",
        -9.804795124736431
      ],
      [
        "▁kọkọ",
        -9.806958937022046
      ],
      [
        "▁oorun",
        -9.808508326065873
      ],
      [
        "V",
        -9.812902881612796
      ],
      [
        "ọwó",
        -9.813299540435407
      ],
      [
        "▁fe",
        -9.813552114517549
      ],
      [
        "are",
        -9.816309506329912
      ],
      [
        "▁nílé",
        -9.816531839931791
      ],
      [
        "▁Iroyin",
        -9.820144315957132
      ],
      [
        "san",
        -9.82150636558223
      ],
      [
        "fe",
        -9.82297468805838
      ],
      [
        "▁Bo",
        -9.8234632294567
      ],
      [
        "▁láé",
        -9.825207058223334
      ],
      [
        "▁sunmọ",
        -9.829372665715344
      ],
      [
        "▁De",
        -9.83011016401564
      ],
      [
        "▁May",
        -9.8307782158246
      ],
      [
        "▁Oju",
        -9.831129215086714
      ],
      [
        "▁lọ́kàn",
        -9.83152586941076
      ],
      [
        "▁ọtun",
        -9.831530410128424
      ],
      [
        "jade",
        -9.831906306429287
      ],
      [
        "▁alá",
        -9.833528651088663
      ],
      [
        "▁Ma",
        -9.834009401772729
      ],
      [
        "▁ṣùgbó",
        -9.835695771462522
      ],
      [
        "▁eni",
        -9.83791534414311
      ],
      [
        "▁fifi",
        -9.837985011090778
      ],
      [
        "▁paṣẹ",
        -9.838661152460336
      ],
      [
        "▁Lọ",
        -9.841928671668777
      ],
      [
        "▁Bé",
        -9.841940162948228
      ],
      [
        "omi",
        -9.842077528543111
      ],
      [
        "▁eyin",
        -9.842253562489818
      ],
      [
        "▁Lẹ́yìn",
        -9.842541993836512
      ],
      [
        "▁kavi",
        -9.843493637134015
      ],
      [
        "▁Awon",
        -9.84415021200962
      ],
      [
        "land",
        -9.84494765438896
      ],
      [
        "wà",
        -9.84507290545598
      ],
      [
        "▁bọtini",
        -9.845225424333606
      ],
      [
        "▁awa",
        -9.846818030966448
      ],
      [
        "▁Irin",
        -9.847344477700672
      ],
      [
        "▁Android",
        -9.848194880129425
      ],
      [
        "▁gando",
        -9.850240167530838
      ],
      [
        "ch",
        -9.850759734617151
      ],
      [
        "▁enia",
        -9.853568469105246
      ],
      [
        "▁nyin",
        -9.853591922886402
      ],
      [
        "▁okeere",
        -9.85380160568558
      ],
      [
        "▁àgùnt",
        -9.853938242280272
      ],
      [
        "▁débi",
        -9.854198790580757
      ],
      [
        "▁padanu",
        -9.85440958170117
      ],
      [
        "▁oludije",
        -9.85519732579514
      ],
      [
        "▁awoṣe",
        -9.85536108884997
      ],
      [
        "ate",
        -9.856248159096504
      ],
      [
        "▁idile",
        -9.856282000797888
      ],
      [
        "▁afẹfẹ",
        -9.859628551441984
      ],
      [
        "▁nilẹ",
        -9.860017442540444
      ],
      [
        "▁Ibadan",
        -9.86039309439274
      ],
      [
        "▁aisan",
        -9.862715094750946
      ],
      [
        "»",
        -9.863596840675712
      ],
      [
        "tan",
        -9.866193553918162
      ],
      [
        "▁lọ́nà",
        -9.866834161599463
      ],
      [
        "▁burú",
        -9.86864693136163
      ],
      [
        "▁lẹ́nu",
        -9.868752182803052
      ],
      [
        "wá",
        -9.868805082197117
      ],
      [
        "ere",
        -9.869589552942749
      ],
      [
        "pò",
        -9.869957126525792
      ],
      [
        "▁awujọ",
        -9.870281577775012
      ],
      [
        "▁àyà",
        -9.872125112849243
      ],
      [
        "▁mulẹ",
        -9.872571534198611
      ],
      [
        "▁ọmọdé",
        -9.872759258763391
      ],
      [
        "àánú",
        -9.874092861626911
      ],
      [
        "▁iboju",
        -9.875422088197816
      ],
      [
        "▁àìsàn",
        -9.875483754534253
      ],
      [
        "▁Sunday",
        -9.875922512227516
      ],
      [
        "▁download",
        -9.876032445876213
      ],
      [
        "▁Sáà",
        -9.876093992631818
      ],
      [
        "▁ọfẹ",
        -9.876627908106329
      ],
      [
        "▁ẹru",
        -9.877104310017105
      ],
      [
        "▁taidi",
        -9.87744604019195
      ],
      [
        "▁ibatan",
        -9.877472148732767
      ],
      [
        "▁South",
        -9.87829629773626
      ],
      [
        "▁àní",
        -9.8790372556831
      ],
      [
        "▁Diẹ",
        -9.879068889271984
      ],
      [
        "▁pèsè",
        -9.87914398490777
      ],
      [
        "son",
        -9.8797134078202
      ],
      [
        "▁ẹrú",
        -9.879861690813923
      ],
      [
        "▁Ọkan",
        -9.87989925831814
      ],
      [
        "han",
        -9.880516647803988
      ],
      [
        "▁ologun",
        -9.882570147391192
      ],
      [
        "▁dinku",
        -9.884250106348723
      ],
      [
        "▁hùwà",
        -9.884627893580404
      ],
      [
        "▁ọran",
        -9.88509137642612
      ],
      [
        "sin",
        -9.885871054974366
      ],
      [
        "▁min",
        -9.88629305846722
      ],
      [
        "▁Show",
        -9.886498938471052
      ],
      [
        "▁arakunrin",
        -9.88781495332582
      ],
      [
        "▁Lori",
        -9.88784539998104
      ],
      [
        "▁ìyè",
        -9.889002341544012
      ],
      [
        "▁koodu",
        -9.889836287837207
      ],
      [
        "▁gbẹ",
        -9.89065951866483
      ],
      [
        "▁Síb",
        -9.890709910152546
      ],
      [
        "▁Ju",
        -9.891076415751872
      ],
      [
        "▁obirin",
        -9.89208247615676
      ],
      [
        "▁Enẹ",
        -9.892179331340472
      ],
      [
        "▁akọle",
        -9.89240361001715
      ],
      [
        "▁So",
        -9.89273290071286
      ],
      [
        "▁àpó",
        -9.892917064933862
      ],
      [
        "@",
        -9.896391070732996
      ],
      [
        "▁ipin",
        -9.89678691162889
      ],
      [
        "▁kiakia",
        -9.897217056752256
      ],
      [
        "▁ijoba",
        -9.897892363586564
      ],
      [
        "áà",
        -9.899737121986366
      ],
      [
        "▁ọgbọn",
        -9.900214037872312
      ],
      [
        "▁lọdun",
        -9.900348830218457
      ],
      [
        "▁ikọ",
        -9.900955029241738
      ],
      [
        "ers",
        -9.902174408727207
      ],
      [
        "▁isinmi",
        -9.90290110542147
      ],
      [
        "▁oludari",
        -9.903047817497525
      ],
      [
        "Y",
        -9.903300109528391
      ],
      [
        "▁fiimu",
        -9.903874176963486
      ],
      [
        "▁pọju",
        -9.90403817503682
      ],
      [
        "▁gbadun",
        -9.904099128703768
      ],
      [
        "▁Ṣ",
        -9.90465061296952
      ],
      [
        "tun",
        -9.906167497069903
      ],
      [
        "▁Gẹgẹbi",
        -9.906304266401444
      ],
      [
        "▁lowo",
        -9.907185542320333
      ],
      [
        "▁fọọmu",
        -9.907904908427508
      ],
      [
        "▁Da",
        -9.908094943665397
      ],
      [
        "▁iṣẹju",
        -9.908403523436633
      ],
      [
        "hlan",
        -9.910006472257333
      ],
      [
        "▁Ọkọ",
        -9.911448684569518
      ],
      [
        "À",
        -9.911941714767702
      ],
      [
        "dà",
        -9.91284675754044
      ],
      [
        "▁ipolongo",
        -9.91330770251114
      ],
      [
        "▁yì",
        -9.91528969242999
      ],
      [
        "▁jíròr",
        -9.916485309160398
      ],
      [
        "▁Ẹrọ",
        -9.916792883456296
      ],
      [
        "▁aṣiṣe",
        -9.918608075592084
      ],
      [
        "▁sibẹsibẹ",
        -9.920731941551962
      ],
      [
        "▁basi",
        -9.922863796346329
      ],
      [
        "▁àjọ",
        -9.924368663626897
      ],
      [
        "▁kìín",
        -9.924948906502404
      ],
      [
        "ṣakoso",
        -9.925120555293034
      ],
      [
        "▁iná",
        -9.925434090961698
      ],
      [
        "▁òdod",
        -9.926093854191242
      ],
      [
        "▁otutu",
        -9.92668683144512
      ],
      [
        "▁òkè",
        -9.926744150542314
      ],
      [
        "▁Ra",
        -9.92690243865205
      ],
      [
        "▁yipada",
        -9.92820512153977
      ],
      [
        "▁ọrun",
        -9.928916526907276
      ],
      [
        "nílùú",
        -9.93052091544464
      ],
      [
        "▁tori",
        -9.931951592064008
      ],
      [
        "▁Ọgbẹni",
        -9.932130832317824
      ],
      [
        "▁Facebook",
        -9.93215765823158
      ],
      [
        "▁Irú",
        -9.932743846819198
      ],
      [
        "▁ìpínlẹ̀",
        -9.934244928259544
      ],
      [
        "▁isẹ",
        -9.936095565004766
      ],
      [
        "▁ìṣè",
        -9.937343793637975
      ],
      [
        "▁dìde",
        -9.938628192591606
      ],
      [
        "▁Iru",
        -9.939021656069777
      ],
      [
        "▁Ba",
        -9.9404583617992
      ],
      [
        "▁itaja",
        -9.94111979635094
      ],
      [
        "▁ojula",
        -9.941542192059092
      ],
      [
        "yàtò",
        -9.942094144818174
      ],
      [
        "▁Idi",
        -9.942817235514823
      ],
      [
        "▁fọ",
        -9.944688591859402
      ],
      [
        "▁India",
        -9.944773144894263
      ],
      [
        "▁ijabọ",
        -9.945818360326562
      ],
      [
        "royin",
        -9.949152815223728
      ],
      [
        "▁Ayé",
        -9.951122772275026
      ],
      [
        "Á",
        -9.951638832879384
      ],
      [
        "▁ibilẹ",
        -9.951793313047023
      ],
      [
        "▁tọ́",
        -9.951863581960446
      ],
      [
        "mítọ",
        -9.9520353078979
      ],
      [
        "▁ibiti",
        -9.952047916870416
      ],
      [
        "▁ẹlé",
        -9.95329863041991
      ],
      [
        "tọsọna",
        -9.953356658273226
      ],
      [
        "▁oṣuwọn",
        -9.954015943059131
      ],
      [
        "▁mimu",
        -9.954150618092145
      ],
      [
        "dọna",
        -9.954378047008433
      ],
      [
        "dá",
        -9.954544905826207
      ],
      [
        "▁reluwe",
        -9.95527568324661
      ],
      [
        "▁toun",
        -9.955504615974638
      ],
      [
        "▁Eleyi",
        -9.95556016174259
      ],
      [
        "ola",
        -9.9563707277546
      ],
      [
        "▁wiwo",
        -9.958595861138404
      ],
      [
        "▁Si",
        -9.959602270506068
      ],
      [
        "▁Ṣigb",
        -9.96212651379816
      ],
      [
        "▁Kì",
        -9.963146178494156
      ],
      [
        "▁ẹjẹ",
        -9.963245572623874
      ],
      [
        "▁lọna",
        -9.963976308180884
      ],
      [
        "▁Itan",
        -9.964013372131843
      ],
      [
        "▁ipalara",
        -9.96441627840542
      ],
      [
        "que",
        -9.966100740206898
      ],
      [
        "▁taara",
        -9.966160147820302
      ],
      [
        "▁ipamọ",
        -9.966207707389696
      ],
      [
        "▁Má",
        -9.966304554662086
      ],
      [
        "▁apoti",
        -9.966324007192672
      ],
      [
        "▁ìtó",
        -9.967117280768214
      ],
      [
        "ic",
        -9.968725292267225
      ],
      [
        "rètí",
        -9.968790913933647
      ],
      [
        "▁Igba",
        -9.969071913775853
      ],
      [
        "▁Un",
        -9.969255317642975
      ],
      [
        "ter",
        -9.970871535098134
      ],
      [
        "▁àjò",
        -9.971744348885316
      ],
      [
        "yọ",
        -9.972441540540764
      ],
      [
        "▁Olorun",
        -9.973927868443836
      ],
      [
        "▁fọto",
        -9.974822239617716
      ],
      [
        "amu",
        -9.975366222356165
      ],
      [
        "kùnrin",
        -9.977363257588808
      ],
      [
        "▁fò",
        -9.977567006601832
      ],
      [
        "▁dín",
        -9.978814553380897
      ],
      [
        "▁pátápát",
        -9.9790975931284
      ],
      [
        "▁ẹbọ",
        -9.980507625772375
      ],
      [
        "▁you",
        -9.98095903391676
      ],
      [
        "▁npe",
        -9.98117156986102
      ],
      [
        "▁oṣere",
        -9.98403377150253
      ],
      [
        "▁Igboho",
        -9.984042707559238
      ],
      [
        "▁X",
        -9.984261877915952
      ],
      [
        "ation",
        -9.984581169601714
      ],
      [
        "ies",
        -9.9852206923972
      ],
      [
        "▁sùn",
        -9.985374526295733
      ],
      [
        "▁Ankara",
        -9.985537517029355
      ],
      [
        "▁fẹran",
        -9.986039689853948
      ],
      [
        "▁kalẹ",
        -9.98643999906781
      ],
      [
        "▁Fún",
        -9.98774975897385
      ],
      [
        "▁gbagbe",
        -9.98945552642086
      ],
      [
        "gún",
        -9.989461947001578
      ],
      [
        "ọwọ",
        -9.98950486585486
      ],
      [
        "oorun",
        -9.98955495691511
      ],
      [
        "▁Reluwe",
        -9.990353766548504
      ],
      [
        "akoko",
        -9.99039335060878
      ],
      [
        "▁John",
        -9.990455047081246
      ],
      [
        "oòrùn",
        -9.99594291219587
      ],
      [
        "▁ìránṣ",
        -9.997191697416229
      ],
      [
        "ọmọ",
        -9.99727148621514
      ],
      [
        "▁August",
        -9.99756370976773
      ],
      [
        "gbọràn",
        -9.99764396369279
      ],
      [
        "▁Nibẹ",
        -9.9976635509387
      ],
      [
        "▁Africa",
        -9.99865590723573
      ],
      [
        "▁Orin",
        -9.998702180185091
      ],
      [
        "hiẹ",
        -9.999491733154082
      ],
      [
        "▁gbìyànj",
        -10.000863785635882
      ],
      [
        "▁agbo",
        -10.00191104590474
      ],
      [
        "▁ẹjọ́",
        -10.002507782255488
      ],
      [
        "▁ewe",
        -10.003821241423598
      ],
      [
        "▁Agba",
        -10.003952805553444
      ],
      [
        "▁January",
        -10.004026624618769
      ],
      [
        "▁abẹ",
        -10.005156286108386
      ],
      [
        "▁gíga",
        -10.00713653020212
      ],
      [
        "▁níbẹ̀",
        -10.007455612437042
      ],
      [
        "▁Lè",
        -10.00916008622896
      ],
      [
        "▁Oludari",
        -10.009308464734463
      ],
      [
        "kóhun",
        -10.009554907811632
      ],
      [
        "▁ododo",
        -10.009646011585572
      ],
      [
        "▁ikẹkọ",
        -10.009693615043574
      ],
      [
        "▁lẹnu",
        -10.012406558175392
      ],
      [
        "▁ọga",
        -10.014900768320336
      ],
      [
        "▁kẹ́kọ̀ọ́",
        -10.017368090277444
      ],
      [
        "▁gbajumo",
        -10.018448608905665
      ],
      [
        "ọkò",
        -10.018950029254228
      ],
      [
        "ńtì",
        -10.019766555203672
      ],
      [
        "▁kete",
        -10.021134724064297
      ],
      [
        "▁imo",
        -10.023484337999689
      ],
      [
        "▁wẹẹbu",
        -10.02511375067242
      ],
      [
        "▁olóòót",
        -10.026988475293653
      ],
      [
        "▁Ọdún",
        -10.02763373010433
      ],
      [
        "ade",
        -10.027913679552732
      ],
      [
        "▁onírúurú",
        -10.028053584511142
      ],
      [
        "▁In",
        -10.028493173920658
      ],
      [
        "▁sẹyin",
        -10.0286287520723
      ],
      [
        "▁ìgbàgbọ́",
        -10.028737250469474
      ],
      [
        "▁Amerika",
        -10.029167207288593
      ],
      [
        "▁báwo",
        -10.029428962768709
      ],
      [
        "ló",
        -10.031814253793298
      ],
      [
        "▁oku",
        -10.03213986647905
      ],
      [
        "▁aje",
        -10.032697619681372
      ],
      [
        "▁patapata",
        -10.03291764521074
      ],
      [
        "▁aráyé",
        -10.03396050252522
      ],
      [
        "▁ríkà",
        -10.035140761635477
      ],
      [
        "▁kẹrin",
        -10.035219637098391
      ],
      [
        "€",
        -10.035422304965463
      ],
      [
        "▁Tẹ",
        -10.035557071181357
      ],
      [
        "▁máà",
        -10.035904443271036
      ],
      [
        "▁aago",
        -10.036405161911816
      ],
      [
        "nẹtiwọki",
        -10.03700484181004
      ],
      [
        "▁alagbeka",
        -10.03783249317136
      ],
      [
        "▁niwaju",
        -10.03973928540058
      ],
      [
        "▁Mátí",
        -10.040255052916832
      ],
      [
        "▁darapọ",
        -10.040878749273377
      ],
      [
        "▁papa",
        -10.040960217480327
      ],
      [
        "▁ọgó",
        -10.041109465332404
      ],
      [
        "▁pín",
        -10.041683297745696
      ],
      [
        "▁No",
        -10.041796613690542
      ],
      [
        "▁Nípa",
        -10.04180789001337
      ],
      [
        "▁òkú",
        -10.041888969286502
      ],
      [
        "dé",
        -10.042116528309236
      ],
      [
        "▁Ọyọ",
        -10.043010315422745
      ],
      [
        "▁kódà",
        -10.044377813456682
      ],
      [
        "▁alabara",
        -10.045350133935324
      ],
      [
        "▁irinṣẹ",
        -10.04596543433428
      ],
      [
        "▁ṣakoso",
        -10.046559040040162
      ],
      [
        "▁iyanu",
        -10.04663799858343
      ],
      [
        "hun",
        -10.047721226299922
      ],
      [
        "org",
        -10.048395937296574
      ],
      [
        "fẹ",
        -10.05106306118669
      ],
      [
        "▁UK",
        -10.051722294740836
      ],
      [
        "▁Oba",
        -10.054693131811147
      ],
      [
        "▁pọ́n",
        -10.055345678557648
      ],
      [
        "tes",
        -10.055419921483828
      ],
      [
        "▁RẸ",
        -10.05562763182654
      ],
      [
        "▁Elo",
        -10.055948125733334
      ],
      [
        "ce",
        -10.05737390400172
      ],
      [
        "▁ṣàkós",
        -10.057508021021324
      ],
      [
        "▁alaga",
        -10.06021490590972
      ],
      [
        "▁búbur",
        -10.060906868186123
      ],
      [
        "gán",
        -10.060918932676657
      ],
      [
        "▁múra",
        -10.06094790144694
      ],
      [
        "▁díẹ̀",
        -10.060948937799422
      ],
      [
        "▁Ọdun",
        -10.061149854929113
      ],
      [
        "▁ominira",
        -10.062918597806943
      ],
      [
        "▁sap",
        -10.063206564464997
      ],
      [
        "bá",
        -10.06330719155377
      ],
      [
        "▁ṣii",
        -10.06450692998756
      ],
      [
        "▁News",
        -10.064811128800574
      ],
      [
        "▁ifiranṣẹ",
        -10.068415959369544
      ],
      [
        "ṣẹ́",
        -10.068434378988416
      ],
      [
        "▁Igbimọ",
        -10.068957569574438
      ],
      [
        "▁kopa",
        -10.06943296900296
      ],
      [
        "▁ẹyẹ",
        -10.069671786354876
      ],
      [
        "lóhùn",
        -10.070075843010756
      ],
      [
        "▁Òfi",
        -10.070508168266246
      ],
      [
        "▁ọwọ́",
        -10.0707459582538
      ],
      [
        "▁Ondo",
        -10.071381951476312
      ],
      [
        "one",
        -10.072143679865045
      ],
      [
        "▁jè",
        -10.074196057684722
      ],
      [
        "iye",
        -10.07453770252826
      ],
      [
        "▁Ísír",
        -10.075540094243133
      ],
      [
        "▁alejo",
        -10.078187425387863
      ],
      [
        "▁miliọnu",
        -10.078229333955797
      ],
      [
        "▁Sọ",
        -10.078397617580617
      ],
      [
        "▁ṣayẹwo",
        -10.079490307827315
      ],
      [
        "▁paapa",
        -10.079580266116496
      ],
      [
        "▁ohùn",
        -10.07975405886403
      ],
      [
        "▁gbá",
        -10.080242949966191
      ],
      [
        "iwaju",
        -10.080249728840666
      ],
      [
        "▁bere",
        -10.080637974196616
      ],
      [
        "▁daadaa",
        -10.081040711332072
      ],
      [
        "▁mímọ́",
        -10.081383211155757
      ],
      [
        "▁kíyè",
        -10.081442767736906
      ],
      [
        "▁Oloye",
        -10.081647421266345
      ],
      [
        "òróró",
        -10.083530056204388
      ],
      [
        "▁gbagbọ",
        -10.083889753479784
      ],
      [
        "gbẹ",
        -10.084193513320534
      ],
      [
        "▁aṣofin",
        -10.084251352268875
      ],
      [
        "▁odi",
        -10.0842627535559
      ],
      [
        "▁tètè",
        -10.084950417632417
      ],
      [
        "▁odo",
        -10.085566774423995
      ],
      [
        "▁jà",
        -10.085588164594435
      ],
      [
        "▁igbeyawo",
        -10.08606370118738
      ],
      [
        "▁Hébé",
        -10.086105310085127
      ],
      [
        "▁afurasi",
        -10.08630797220432
      ],
      [
        "▁dí",
        -10.088192509596665
      ],
      [
        "ọla",
        -10.08829192935264
      ],
      [
        "▁lọwọlọwọ",
        -10.08967110928598
      ],
      [
        "rọ",
        -10.090115434520984
      ],
      [
        "▁eroja",
        -10.091396835416433
      ],
      [
        "▁igbo",
        -10.091457699246112
      ],
      [
        "élì",
        -10.092074584407356
      ],
      [
        "▁Gẹgẹ",
        -10.092350773519316
      ],
      [
        "▁déédéé",
        -10.09299003110447
      ],
      [
        "▁ranṣẹ",
        -10.093344517158956
      ],
      [
        "bẹ",
        -10.093454602892349
      ],
      [
        "▁ikede",
        -10.093812016808725
      ],
      [
        "▁ọ̀rẹ́",
        -10.094250594380094
      ],
      [
        "ina",
        -10.095273359274769
      ],
      [
        "▁ọjọgbọn",
        -10.096361928335854
      ],
      [
        "▁kọmputa",
        -10.096439640887136
      ],
      [
        "▁ipe",
        -10.09697678084232
      ],
      [
        "depope",
        -10.09708137286692
      ],
      [
        "▁retí",
        -10.098238592280108
      ],
      [
        "▁olórí",
        -10.099946608835491
      ],
      [
        "▁márùn",
        -10.10124732396018
      ],
      [
        "▁ọgbó",
        -10.101601916521158
      ],
      [
        "▁atẹjade",
        -10.101883568998318
      ],
      [
        "▁iduro",
        -10.103078452963343
      ],
      [
        "▁akọsilẹ",
        -10.103172592265215
      ],
      [
        "▁ọ̀run",
        -10.10341042224968
      ],
      [
        "▁meje",
        -10.103987332714556
      ],
      [
        "▁ijọ",
        -10.10514547062995
      ],
      [
        "▁mélòó",
        -10.105409021224776
      ],
      [
        "ika",
        -10.10572114192036
      ],
      [
        "▁nugbo",
        -10.105942732787264
      ],
      [
        "▁ifojusi",
        -10.106443001056038
      ],
      [
        "▁Ojú",
        -10.107561287683536
      ],
      [
        "òtítọ́",
        -10.109245951802116
      ],
      [
        "▁kópa",
        -10.109296083112564
      ],
      [
        "▁eso",
        -10.109460422121876
      ],
      [
        "▁ha",
        -10.11024743214847
      ],
      [
        "▁gbo",
        -10.110579553573436
      ],
      [
        "ipá",
        -10.11077189989916
      ],
      [
        "▁October",
        -10.111071395802515
      ],
      [
        "▁ṣùgbọ́n",
        -10.11141523370825
      ],
      [
        "▁itanna",
        -10.112746111011312
      ],
      [
        "▁tutu",
        -10.113264270580071
      ],
      [
        "▁irọrun",
        -10.113277765555353
      ],
      [
        "\\",
        -10.113439013121322
      ],
      [
        "▁Agbara",
        -10.114014814622458
      ],
      [
        "▁kamẹra",
        -10.117522156373544
      ],
      [
        "pàdé",
        -10.118594746121662
      ],
      [
        "ẹni",
        -10.120154799684244
      ],
      [
        "▁Ọlọhun",
        -10.120262111102178
      ],
      [
        "▁cheats",
        -10.120902711711938
      ],
      [
        "ogun",
        -10.121748981053308
      ],
      [
        "wò",
        -10.121817309658391
      ],
      [
        "▁asa",
        -10.122610493624691
      ],
      [
        "▁ìjà",
        -10.123538949125304
      ],
      [
        "▁ṣawari",
        -10.123986116336477
      ],
      [
        "▁loke",
        -10.12417127260966
      ],
      [
        "▁koju",
        -10.124518814927102
      ],
      [
        "▁Amọ",
        -10.124576766194863
      ],
      [
        "▁ẹlòmí",
        -10.124769150162452
      ],
      [
        "▁ṣètò",
        -10.12518511539506
      ],
      [
        "▁Iṣowo",
        -10.125240706006
      ],
      [
        "▁Twitter",
        -10.125460769623718
      ],
      [
        "▁Ọrọ",
        -10.125856928339129
      ],
      [
        "gbo",
        -10.12626130734638
      ],
      [
        "▁Abuja",
        -10.127473062053406
      ],
      [
        "▁alaafia",
        -10.12754372671295
      ],
      [
        "q",
        -10.127956597457878
      ],
      [
        "▁Sànmánì",
        -10.128490793692748
      ],
      [
        "▁tete",
        -10.129337072580848
      ],
      [
        "▁rèé",
        -10.12940954944422
      ],
      [
        "▁kókó",
        -10.1294133282403
      ],
      [
        "U",
        -10.129481117970364
      ],
      [
        "▁Roulette",
        -10.129524234012
      ],
      [
        "▁batiri",
        -10.129537561885488
      ],
      [
        "mí",
        -10.129630547649237
      ],
      [
        "▁ṣá",
        -10.129822040194014
      ],
      [
        "▁fesi",
        -10.131329794572078
      ],
      [
        "▁TV",
        -10.131447907013069
      ],
      [
        "▁International",
        -10.131978378469055
      ],
      [
        "gbè",
        -10.1320573460972
      ],
      [
        "▁TCDD",
        -10.132353221160775
      ],
      [
        "▁Windows",
        -10.132488077795426
      ],
      [
        "▁ṢE",
        -10.132595126889637
      ],
      [
        "▁ẹyin",
        -10.132718412162964
      ],
      [
        "▁US",
        -10.133440572982895
      ],
      [
        "É",
        -10.1334902483746
      ],
      [
        "▁Mọ",
        -10.13394839449961
      ],
      [
        "▁fídíò",
        -10.135083384373356
      ],
      [
        "▁èyíkéyì",
        -10.136797082252231
      ],
      [
        "▁hia",
        -10.13748712787259
      ],
      [
        "▁iran",
        -10.137762316678227
      ],
      [
        "▁Oyo",
        -10.138039822638817
      ],
      [
        "▁sibẹ",
        -10.138451285040222
      ],
      [
        "▁ìlérí",
        -10.138622092650165
      ],
      [
        "▁igbega",
        -10.139617028818872
      ],
      [
        "ment",
        -10.14050061692117
      ],
      [
        "▁mẹ́ta",
        -10.140930818628902
      ],
      [
        "▁igbese",
        -10.141502377695677
      ],
      [
        "▁dáàbò",
        -10.141830663756298
      ],
      [
        "▁Fa",
        -10.142973126076605
      ],
      [
        "▁ibọn",
        -10.1432956851107
      ],
      [
        "▁alabaṣepọ",
        -10.143524940369154
      ],
      [
        "▁fifun",
        -10.144150024122084
      ],
      [
        "ca",
        -10.144509605180374
      ],
      [
        "▁gigun",
        -10.144520012791432
      ],
      [
        "▁wọpọ",
        -10.1445967900775
      ],
      [
        "▁ṣèrìbọm",
        -10.144989617924688
      ],
      [
        "▁ṣeun",
        -10.1452496273301
      ],
      [
        "▁igbiyanju",
        -10.14526613760359
      ],
      [
        "▁ọdaran",
        -10.145344398668538
      ],
      [
        "▁Ṣùgbó",
        -10.146574084940172
      ],
      [
        "▁Iya",
        -10.14759151603437
      ],
      [
        "▁àgbègb",
        -10.147922242913957
      ],
      [
        "▁lero",
        -10.148241444053951
      ],
      [
        "▁iyasọtọ",
        -10.148745663764611
      ],
      [
        "▁láày",
        -10.148994628113885
      ],
      [
        "▁púpò",
        -10.149033738944794
      ],
      [
        "▁ìwò",
        -10.149301453876776
      ],
      [
        "▁Media",
        -10.14965698412156
      ],
      [
        "▁ogún",
        -10.15079306866085
      ],
      [
        "▁SEO",
        -10.151192762352183
      ],
      [
        "▁eko",
        -10.151305497485197
      ],
      [
        "▁Ipa",
        -10.152037483199289
      ],
      [
        "▁Jul",
        -10.153203328147296
      ],
      [
        "▁ọgba",
        -10.154339197228955
      ],
      [
        "▁wọlé",
        -10.155466890702623
      ],
      [
        "▁Lá",
        -10.155499633214946
      ],
      [
        "▁itumọ",
        -10.155938683231197
      ],
      [
        "▁Tímó",
        -10.157155399398071
      ],
      [
        "▁Ìyẹ",
        -10.157279224759588
      ],
      [
        "▁joko",
        -10.157367688571846
      ],
      [
        "▁Nibi",
        -10.157742705734089
      ],
      [
        "ipa",
        -10.158557986213683
      ],
      [
        "top",
        -10.15878662332242
      ],
      [
        "▁gbese",
        -10.159868390534667
      ],
      [
        "▁Turkey",
        -10.160075838678338
      ],
      [
        "▁àlùf",
        -10.161076994148324
      ],
      [
        "▁Iye",
        -10.163292100763236
      ],
      [
        "▁lilọ",
        -10.163884112403334
      ],
      [
        "▁ẹsin",
        -10.164739192581788
      ],
      [
        "yẹ",
        -10.166990629360846
      ],
      [
        "▁naira",
        -10.167164187940925
      ],
      [
        "▁pípé",
        -10.167315183590013
      ],
      [
        "dodo",
        -10.16764789780702
      ],
      [
        "▁Iwọ",
        -10.16875328840593
      ],
      [
        "▁olupese",
        -10.168956506697622
      ],
      [
        "▁dipo",
        -10.171282400941404
      ],
      [
        "▁tẹ́lẹ̀",
        -10.171681581264128
      ],
      [
        "bè",
        -10.17212382780298
      ],
      [
        "ùn",
        -10.173257836223964
      ],
      [
        "▁oloselu",
        -10.174012098199515
      ],
      [
        "▁win",
        -10.174963744598504
      ],
      [
        "▁Òwe",
        -10.17510432517718
      ],
      [
        "▁ṣòro",
        -10.175507192811486
      ],
      [
        "▁Ijoba",
        -10.17569859839653
      ],
      [
        "lori",
        -10.176101049310136
      ],
      [
        "aṣẹ",
        -10.177257161504222
      ],
      [
        "ary",
        -10.17727403234338
      ],
      [
        "▁olugbe",
        -10.177280997149053
      ],
      [
        "meji",
        -10.177897999445625
      ],
      [
        "▁ailew",
        -10.177954928075424
      ],
      [
        "▁ida",
        -10.179227992521604
      ],
      [
        "▁dì",
        -10.179337890355624
      ],
      [
        "▁laipẹ",
        -10.17988580354205
      ],
      [
        "▁Bàbá",
        -10.17997120959317
      ],
      [
        "▁idaduro",
        -10.181807300497663
      ],
      [
        "▁St",
        -10.181963317578743
      ],
      [
        "▁Minisit",
        -10.182554619714184
      ],
      [
        "▁àpilè",
        -10.18269966473258
      ],
      [
        "ṣà",
        -10.182840483244886
      ],
      [
        "▁àkọ́kọ́",
        -10.18303488440052
      ],
      [
        "The",
        -10.18309919885506
      ],
      [
        "kùn",
        -10.18346262786664
      ],
      [
        "▁soro",
        -10.185732808269496
      ],
      [
        "▁méje",
        -10.185885571593282
      ],
      [
        "̩",
        -10.186307500714406
      ],
      [
        "▁idoko",
        -10.186428137366882
      ],
      [
        "▁ẹlòmíì",
        -10.186756626255717
      ],
      [
        "▁atẹle",
        -10.187087278684489
      ],
      [
        "▁ireti",
        -10.18710051993674
      ],
      [
        "▁àpéjọ",
        -10.187571410812286
      ],
      [
        "▁ọmọbirin",
        -10.187804046226535
      ],
      [
        "▁Ise",
        -10.190076267360892
      ],
      [
        "▁nitorina",
        -10.19280242161012
      ],
      [
        "▁òkun",
        -10.193293792103542
      ],
      [
        "▁mà",
        -10.19419352285218
      ],
      [
        "▁Klisti",
        -10.194373733457663
      ],
      [
        "▁ìran",
        -10.194711837296891
      ],
      [
        "▁àwùjọ",
        -10.195121638862782
      ],
      [
        "Wo",
        -10.196423556340068
      ],
      [
        "▁World",
        -10.200554843909565
      ],
      [
        "▁imeeli",
        -10.201101844080164
      ],
      [
        "▁okan",
        -10.201687951390715
      ],
      [
        "▁dagbe",
        -10.20540222975529
      ],
      [
        "ká",
        -10.20644039057495
      ],
      [
        "▁Ilẹ",
        -10.206730283111895
      ],
      [
        "▁abo",
        -10.20682832440564
      ],
      [
        "▁Ábúráhám",
        -10.20696856434184
      ],
      [
        "▁Ádám",
        -10.206972670885673
      ],
      [
        "▁túmọ̀",
        -10.207972816109292
      ],
      [
        "▁ayanfẹ",
        -10.208089941199203
      ],
      [
        "▁Mímọ",
        -10.20896796711729
      ],
      [
        "▁laini",
        -10.209755194827911
      ],
      [
        "▁kéré",
        -10.210413889406473
      ],
      [
        "▁ọmọbìnrin",
        -10.211187954063377
      ],
      [
        "Z",
        -10.211870538465012
      ],
      [
        "▁ayipada",
        -10.21187579401062
      ],
      [
        "▁màá",
        -10.212231089705837
      ],
      [
        "▁Jẹ́",
        -10.213186032677566
      ],
      [
        "kí",
        -10.213479309388036
      ],
      [
        "▁wípé",
        -10.21407675622882
      ],
      [
        "▁York",
        -10.21415863292072
      ],
      [
        "▁ronu",
        -10.214234632280183
      ],
      [
        "▁Ala",
        -10.214272089232306
      ],
      [
        "▁sílé",
        -10.215123297747551
      ],
      [
        "▁sàn",
        -10.215249871266948
      ],
      [
        "▁Èkó",
        -10.21657887763212
      ],
      [
        "ze",
        -10.217517035069276
      ],
      [
        "▁itọnisọna",
        -10.217630000836303
      ],
      [
        "able",
        -10.219419979970064
      ],
      [
        "▁WA",
        -10.219571868325456
      ],
      [
        "▁Amazon",
        -10.220353794904405
      ],
      [
        "▁ẹ̀rí",
        -10.220835969972722
      ],
      [
        "▁hún",
        -10.222492984257173
      ],
      [
        "▁ìké",
        -10.222837561528166
      ],
      [
        "ode",
        -10.22445020381044
      ],
      [
        "▁láì",
        -10.22594597617012
      ],
      [
        "▁Aísá",
        -10.226025761860068
      ],
      [
        "ele",
        -10.226138095288531
      ],
      [
        "▁dárí",
        -10.226589074118996
      ],
      [
        "ìíra",
        -10.22756558823577
      ],
      [
        "▁Ahọlu",
        -10.228302810429067
      ],
      [
        "▁mẹfa",
        -10.228712375348769
      ],
      [
        "▁Oni",
        -10.22878879343114
      ],
      [
        "▁kọ́kọ́",
        -10.228841036472565
      ],
      [
        "▁Kẹs",
        -10.229260937038251
      ],
      [
        "▁gbò",
        -10.23026326523907
      ],
      [
        "▁Èm",
        -10.230274230703095
      ],
      [
        "▁olokiki",
        -10.230442188838367
      ],
      [
        "▁kárí",
        -10.23102700774696
      ],
      [
        "▁Tuntun",
        -10.231917565046825
      ],
      [
        "chi",
        -10.232428309525124
      ],
      [
        "▁tool",
        -10.232498640938092
      ],
      [
        "ure",
        -10.232831995810937
      ],
      [
        "▁pamọ",
        -10.233812845742552
      ],
      [
        "▁dahun",
        -10.234119333011238
      ],
      [
        "▁oselu",
        -10.234301277935735
      ],
      [
        "▁Ja",
        -10.234905518541344
      ],
      [
        "won",
        -10.235107450154915
      ],
      [
        "▁iranti",
        -10.237602233093066
      ],
      [
        "▁wòlí",
        -10.23804462713636
      ],
      [
        "▁ààbò",
        -10.239273812025504
      ],
      [
        "dájú",
        -10.239350905874357
      ],
      [
        "▁dípò",
        -10.240813684158551
      ],
      [
        "▁ìyà",
        -10.241349416753437
      ],
      [
        "dúrà",
        -10.242738400289724
      ],
      [
        "▁ṣèlér",
        -10.242759953839888
      ],
      [
        "èké",
        -10.243006908973353
      ],
      [
        "▁omẹ",
        -10.243065327285136
      ],
      [
        "▁òṣèlú",
        -10.243081421500325
      ],
      [
        "▁aláṣẹ",
        -10.244861266446565
      ],
      [
        "▁Israeli",
        -10.24494071689341
      ],
      [
        "▁ṣẹṣẹ",
        -10.245284829617294
      ],
      [
        "▁fidi",
        -10.245916774088627
      ],
      [
        "▁Gé",
        -10.246092657473676
      ],
      [
        "▁taa",
        -10.246797533100407
      ],
      [
        "▁tara",
        -10.246825617932329
      ],
      [
        "▁agbese",
        -10.246896076896032
      ],
      [
        "▁San",
        -10.248005666234748
      ],
      [
        "▁Ere",
        -10.248522153741131
      ],
      [
        "binrin",
        -10.2488092174627
      ],
      [
        "àwọn",
        -10.24913754514319
      ],
      [
        "▁síbi",
        -10.249809042165031
      ],
      [
        "▁bùn",
        -10.250268873209528
      ],
      [
        "adi",
        -10.25046608066975
      ],
      [
        "▁lórílẹ̀",
        -10.250666083611764
      ],
      [
        "▁tabili",
        -10.251085286813767
      ],
      [
        "▁Alaye",
        -10.251383997097932
      ],
      [
        "▁olukọ",
        -10.25179390460891
      ],
      [
        "▁gọalọna",
        -10.252409523733098
      ],
      [
        "▁awujo",
        -10.25273621540206
      ],
      [
        "gu",
        -10.253258039783566
      ],
      [
        "▁imọlẹ",
        -10.253266953358573
      ],
      [
        "▁Fulani",
        -10.25330967968651
      ],
      [
        "▁lulú",
        -10.2535571623762
      ],
      [
        "▁April",
        -10.254251268419631
      ],
      [
        "kẹhin",
        -10.255385388213316
      ],
      [
        "mú",
        -10.255498192181465
      ],
      [
        "▁Instagram",
        -10.256280754683758
      ],
      [
        "▁Musulumi",
        -10.256930003970028
      ],
      [
        "▁IP",
        -10.258821233332537
      ],
      [
        "▁káàkiri",
        -10.260571157902689
      ],
      [
        "▁Jóò",
        -10.260847888970517
      ],
      [
        "▁ọ̀kan",
        -10.261012563145218
      ],
      [
        "▁March",
        -10.261114587390576
      ],
      [
        "gbona",
        -10.261207089680916
      ],
      [
        "▁ọgbà",
        -10.26129626072965
      ],
      [
        "▁akẹkọọ",
        -10.26153803083006
      ],
      [
        "▁ultrasonic",
        -10.261685547096434
      ],
      [
        "▁pẹ́",
        -10.261957632169487
      ],
      [
        "polongo",
        -10.263357313203892
      ],
      [
        "▁Aye",
        -10.264267699720412
      ],
      [
        "▁aṣaju",
        -10.264661834196296
      ],
      [
        "▁City",
        -10.264946539348571
      ],
      [
        "yè",
        -10.264974333909777
      ],
      [
        "▁ẹ̀yìn",
        -10.26534858554095
      ],
      [
        "▁from",
        -10.265581529887884
      ],
      [
        "bùkún",
        -10.265951014447264
      ],
      [
        "▁yọ́n",
        -10.26608799212958
      ],
      [
        "▁ẹja",
        -10.266287161499625
      ],
      [
        "fọwó",
        -10.267028740350456
      ],
      [
        "wájú",
        -10.267108110141065
      ],
      [
        "▁agbofinro",
        -10.267278531766287
      ],
      [
        "▁Omo",
        -10.268447456608818
      ],
      [
        "▁June",
        -10.268577235271152
      ],
      [
        "sẹkẹsẹ",
        -10.268798611462971
      ],
      [
        "bínú",
        -10.26897344480308
      ],
      [
        "▁lile",
        -10.270434581366391
      ],
      [
        "▁Facts",
        -10.270580567213395
      ],
      [
        "▁Co",
        -10.27072648911999
      ],
      [
        "▁idanimọ",
        -10.271361288290253
      ],
      [
        "▁dali",
        -10.272397074763832
      ],
      [
        "▁òjíṣ",
        -10.27240116688553
      ],
      [
        "▁buru",
        -10.272495836971782
      ],
      [
        "▁sanwo",
        -10.272669955259818
      ],
      [
        "zi",
        -10.272795490324317
      ],
      [
        "▁lọ́jọ́",
        -10.272863374051122
      ],
      [
        "fiisi",
        -10.273238669343804
      ],
      [
        "UN",
        -10.274428560279384
      ],
      [
        "▁awakọ",
        -10.275359761309977
      ],
      [
        "▁Gbogbogbo",
        -10.27577790892924
      ],
      [
        "▁ìdá",
        -10.276048930871
      ],
      [
        "▁sisan",
        -10.276542022493755
      ],
      [
        "▁Z",
        -10.277833942591624
      ],
      [
        "▁SI",
        -10.278087425802552
      ],
      [
        "Ni",
        -10.278462417366434
      ],
      [
        "▁Kàkà",
        -10.279633651416844
      ],
      [
        "▁gbàgbé",
        -10.28046085345931
      ],
      [
        "ilu",
        -10.28053247009396
      ],
      [
        "▁ẹbun",
        -10.280845581726712
      ],
      [
        "balẹ̀",
        -10.2813357389915
      ],
      [
        "yé",
        -10.281393638039807
      ],
      [
        "kó",
        -10.2816354427465
      ],
      [
        "owhe",
        -10.283415933610108
      ],
      [
        "▁lórílè",
        -10.284661458850277
      ],
      [
        "▁leti",
        -10.28491564047551
      ],
      [
        "▁idiwọ",
        -10.286289059003554
      ],
      [
        "▁aigba",
        -10.287013803777208
      ],
      [
        "▁Olúwa",
        -10.287489158293246
      ],
      [
        "▁pipẹ",
        -10.288208677143674
      ],
      [
        "▁UAE",
        -10.28904821700624
      ],
      [
        "▁ranti",
        -10.291731386522931
      ],
      [
        "▁ojlẹ",
        -10.291982632580975
      ],
      [
        "▁Lẹyin",
        -10.292892966188273
      ],
      [
        "▁ebi",
        -10.293997551224148
      ],
      [
        "▁Gíríì",
        -10.294167326093117
      ],
      [
        "▁Lara",
        -10.2941872021402
      ],
      [
        "▁alliance",
        -10.294573164014905
      ],
      [
        "▁LATI",
        -10.294601584021777
      ],
      [
        "▁Pro",
        -10.294815790770803
      ],
      [
        "▁School",
        -10.295947139041548
      ],
      [
        "▁nípasè",
        -10.29669412453121
      ],
      [
        "▁Su",
        -10.297295399584758
      ],
      [
        "òpin",
        -10.297776793422988
      ],
      [
        "▁ọkọ̀",
        -10.298735764578971
      ],
      [
        "ké",
        -10.298947937273326
      ],
      [
        "▁nifẹ",
        -10.299105804948589
      ],
      [
        "▁kukuru",
        -10.30044296984542
      ],
      [
        "▁Me",
        -10.300709680231062
      ],
      [
        "▁igbe",
        -10.30084602949646
      ],
      [
        "lú",
        -10.301240338131311
      ],
      [
        "▁avenger",
        -10.30192456941574
      ],
      [
        "eji",
        -10.301952034125527
      ],
      [
        "Mát",
        -10.301995214362556
      ],
      [
        "▁susu",
        -10.303150236557666
      ],
      [
        "▁mọto",
        -10.303424936193498
      ],
      [
        "▁wiwọle",
        -10.303542810939124
      ],
      [
        "▁iPhone",
        -10.303602136999803
      ],
      [
        "mó",
        -10.303891998344568
      ],
      [
        "▁nira",
        -10.30521599880921
      ],
      [
        "▁ipolowo",
        -10.305942748624574
      ],
      [
        "▁London",
        -10.305967518590233
      ],
      [
        "èso",
        -10.306294912142976
      ],
      [
        "▁ikanni",
        -10.306321556045257
      ],
      [
        "▁yanjú",
        -10.30721667240126
      ],
      [
        "▁oluwadi",
        -10.307415602561928
      ],
      [
        "▁Gẹẹsi",
        -10.307696436258858
      ],
      [
        "▁ibanuj",
        -10.30823065390085
      ],
      [
        "▁hu",
        -10.3090784664918
      ],
      [
        "^",
        -10.309330409936408
      ],
      [
        "òye",
        -10.309861335578512
      ],
      [
        "▁táa",
        -10.312126547528916
      ],
      [
        "▁ooru",
        -10.312360877391807
      ],
      [
        "▁tàn",
        -10.31241113298336
      ],
      [
        "▁ifarahan",
        -10.312682833323972
      ],
      [
        "▁Omi",
        -10.314489924696815
      ],
      [
        "▁State",
        -10.31478711982039
      ],
      [
        "▁táá",
        -10.314918384038572
      ],
      [
        "▁ATI",
        -10.315065144257058
      ],
      [
        "▁Ha",
        -10.31542765913975
      ],
      [
        "▁aarin",
        -10.315504191226893
      ],
      [
        "▁ayò",
        -10.31573601708472
      ],
      [
        "godo",
        -10.316564915076816
      ],
      [
        "pé",
        -10.317352124847051
      ],
      [
        "▁ìgbé",
        -10.317410007794702
      ],
      [
        "hin",
        -10.31857672944529
      ],
      [
        "▁buburu",
        -10.319304773885946
      ],
      [
        "▁Mí",
        -10.319745011296318
      ],
      [
        "▁Top",
        -10.320325404415286
      ],
      [
        "ọjọ",
        -10.32068045155584
      ],
      [
        "▁iwosan",
        -10.322702928601217
      ],
      [
        "▁ẹ̀sìn",
        -10.32279720407375
      ],
      [
        "▁olù",
        -10.322871198192598
      ],
      [
        "▁agbalagba",
        -10.323450223811635
      ],
      [
        "▁Sí",
        -10.324332664868304
      ],
      [
        "▁El",
        -10.324473342408757
      ],
      [
        "▁nkankan",
        -10.324547733029169
      ],
      [
        "▁was",
        -10.325094414990373
      ],
      [
        "▁Lu",
        -10.3252128170413
      ],
      [
        "▁igbẹkẹle",
        -10.325242979782931
      ],
      [
        "▁ibajẹ",
        -10.327170577085438
      ],
      [
        "▁òṣèré",
        -10.32736607890626
      ],
      [
        "dò",
        -10.327902872980076
      ],
      [
        "▁du",
        -10.328558577605616
      ],
      [
        "▁David",
        -10.328765403466852
      ],
      [
        "▁Agbaye",
        -10.328893826339158
      ],
      [
        "▁osere",
        -10.329018375584242
      ],
      [
        "yọnnu",
        -10.329501169361189
      ],
      [
        "▁sókè",
        -10.329577992179516
      ],
      [
        "kunrin",
        -10.329948111167331
      ],
      [
        "▁ìrìn",
        -10.330177916159794
      ],
      [
        "▁bulọọgi",
        -10.33084842000422
      ],
      [
        "▁abojuto",
        -10.33094753352854
      ],
      [
        "yọnẹn",
        -10.331328932292342
      ],
      [
        "▁odò",
        -10.332543871164958
      ],
      [
        "▁kẹkẹ",
        -10.333007080856952
      ],
      [
        "▁para",
        -10.333308670002133
      ],
      [
        "▁sinim",
        -10.333720451510985
      ],
      [
        "▁Èdè",
        -10.334413638654976
      ],
      [
        "▁síbẹ̀",
        -10.335523358455545
      ],
      [
        "▁Ya",
        -10.336047136615989
      ],
      [
        "▁tirẹ",
        -10.33669046634823
      ],
      [
        "dura",
        -10.337348797183736
      ],
      [
        "▁Ijọba",
        -10.338034280040205
      ],
      [
        "lù",
        -10.338537020649197
      ],
      [
        "▁oyinbo",
        -10.339361790523036
      ],
      [
        "▁ibẹ",
        -10.339578501313143
      ],
      [
        "▁Akoko",
        -10.339959826225368
      ],
      [
        "▁Ìjọ",
        -10.341117723766702
      ],
      [
        "▁tiwọn",
        -10.341701002452949
      ],
      [
        "▁ìwádìí",
        -10.341920402002753
      ],
      [
        "▁agbekalẹ",
        -10.34274352824806
      ],
      [
        "▁Yan",
        -10.34378335740453
      ],
      [
        "▁Amé",
        -10.34406320882759
      ],
      [
        "▁sisọ",
        -10.344421013171756
      ],
      [
        "▁lábé",
        -10.344684504201268
      ],
      [
        "tẹ́lẹ̀",
        -10.3449780900326
      ],
      [
        "▁Aworan",
        -10.345114959596325
      ],
      [
        "▁borí",
        -10.345211784244622
      ],
      [
        "▁nílè",
        -10.346394168447812
      ],
      [
        "gbọn",
        -10.347714681765876
      ],
      [
        "jinlẹ",
        -10.349843069156345
      ],
      [
        "▁ṣigb",
        -10.34990639866566
      ],
      [
        "Ti",
        -10.350180273545725
      ],
      [
        "din",
        -10.350227752875846
      ],
      [
        "▁game",
        -10.35055990066846
      ],
      [
        "▁Orilẹ",
        -10.350663428666223
      ],
      [
        "▁nigbamii",
        -10.352207753583889
      ],
      [
        "▁orileede",
        -10.352763941454455
      ],
      [
        "ck",
        -10.352890842564506
      ],
      [
        "pẹẹrẹ",
        -10.35312518301189
      ],
      [
        "▁lagbegbe",
        -10.353264360938558
      ],
      [
        "▁Ro",
        -10.356314848975224
      ],
      [
        "▁Imọlẹ",
        -10.356741263574946
      ],
      [
        "▁ijamba",
        -10.356860767988806
      ],
      [
        "iṣowo",
        -10.356904660570423
      ],
      [
        "▁lásìk",
        -10.357169458868588
      ],
      [
        "told",
        -10.357416699640275
      ],
      [
        "ali",
        -10.357553581819026
      ],
      [
        "▁alawọ",
        -10.357598076146484
      ],
      [
        "▁Do",
        -10.358742268625113
      ],
      [
        "▁láy",
        -10.35991134903901
      ],
      [
        "▁tiwa",
        -10.360867163783412
      ],
      [
        "▁awo",
        -10.362072038550965
      ],
      [
        "▁Ar",
        -10.362490605909816
      ],
      [
        "lẹ́kọ̀ọ́",
        -10.36253675031446
      ],
      [
        "▁Bẹẹ",
        -10.362631952379362
      ],
      [
        "▁lán",
        -10.363272620643231
      ],
      [
        "▁dibo",
        -10.364089949565363
      ],
      [
        "▁Ri",
        -10.3643435986404
      ],
      [
        "▁ṣetan",
        -10.364642269202214
      ],
      [
        "▁adari",
        -10.365475714549596
      ],
      [
        "abi",
        -10.36571429838599
      ],
      [
        "▁jùlọ",
        -10.365894011226292
      ],
      [
        "▁pinpin",
        -10.36767106545989
      ],
      [
        "▁godo",
        -10.369095316785051
      ],
      [
        "▁rira",
        -10.369273253637536
      ],
      [
        "gbó",
        -10.36933469823976
      ],
      [
        "▁ọgọrun",
        -10.371586094223307
      ],
      [
        "dì",
        -10.371874197482803
      ],
      [
        "▁Kọ",
        -10.372008655827154
      ],
      [
        "▁Kẹwa",
        -10.372120529176286
      ],
      [
        "▁Sugbon",
        -10.372569519626635
      ],
      [
        "▁Hack",
        -10.372828433247845
      ],
      [
        "▁laye",
        -10.372924535003698
      ],
      [
        "▁fífi",
        -10.373349094427
      ],
      [
        "AD",
        -10.373591944747767
      ],
      [
        "▁ajeji",
        -10.373722077030038
      ],
      [
        "lara",
        -10.37398615419216
      ],
      [
        "▁December",
        -10.37444910758026
      ],
      [
        "ago",
        -10.374726849879178
      ],
      [
        "▁ẹwọn",
        -10.3756244409196
      ],
      [
        "▁ayo",
        -10.376201678358033
      ],
      [
        "▁Pe",
        -10.377092171170236
      ],
      [
        "▁igbakeji",
        -10.37731975589866
      ],
      [
        "Kí",
        -10.377439062740692
      ],
      [
        "▁agbègbè",
        -10.377598624974592
      ],
      [
        "▁tako",
        -10.378290274547116
      ],
      [
        "▁ọmọkùnrin",
        -10.379922123686748
      ],
      [
        "▁Ńṣ",
        -10.380043140554571
      ],
      [
        "▁fó",
        -10.380993459956052
      ],
      [
        "▁akọ",
        -10.381170970396344
      ],
      [
        "sayen",
        -10.382233778209637
      ],
      [
        "▁salay",
        -10.38301031042801
      ],
      [
        "▁isoro",
        -10.384116037988914
      ],
      [
        "▁ìdáhùn",
        -10.38482257390852
      ],
      [
        "Ìṣe",
        -10.385838274737598
      ],
      [
        "▁bori",
        -10.386405194842547
      ],
      [
        "▁Àwa",
        -10.38695669998028
      ],
      [
        "▁aja",
        -10.387578114544088
      ],
      [
        "▁Nitorinaa",
        -10.387863129674876
      ],
      [
        "▁lọ́dún",
        -10.388387593785106
      ],
      [
        "▁kini",
        -10.390318352476118
      ],
      [
        "▁aini",
        -10.390780403234018
      ],
      [
        "▁Kwara",
        -10.391114090753115
      ],
      [
        "▁lẹta",
        -10.391661532679102
      ],
      [
        "▁jọwọ",
        -10.392271142689642
      ],
      [
        "▁létí",
        -10.392491251546751
      ],
      [
        "▁Keje",
        -10.392951492846052
      ],
      [
        "▁aliho",
        -10.393075829546358
      ],
      [
        "▁Biography",
        -10.393309092881292
      ],
      [
        "▁Ìṣe",
        -10.393443890953264
      ],
      [
        "▁Ọ̀pọ̀",
        -10.39391734931271
      ],
      [
        "▁nilu",
        -10.393995878000748
      ],
      [
        "▁ọmọkunrin",
        -10.395766855472337
      ],
      [
        "▁ileewe",
        -10.396384182655986
      ],
      [
        "▁firanṣẹ",
        -10.398015636510904
      ],
      [
        "tẹwẹ",
        -10.39815000266386
      ],
      [
        "▁pupa",
        -10.398304643653976
      ],
      [
        "akoso",
        -10.398458026129283
      ],
      [
        "der",
        -10.398719635909572
      ],
      [
        "▁sare",
        -10.39903816765372
      ],
      [
        "▁pàdé",
        -10.399259703135554
      ],
      [
        "est",
        -10.399452997105197
      ],
      [
        "ite",
        -10.400209702751738
      ],
      [
        "▁Gbigba",
        -10.400441129436658
      ],
      [
        "▁ibalopo",
        -10.400559565820634
      ],
      [
        "▁Okun",
        -10.403717974537816
      ],
      [
        "▁Faranse",
        -10.405168168942044
      ],
      [
        "▁apajlẹ",
        -10.405258572612334
      ],
      [
        "▁TÓ",
        -10.406221623361809
      ],
      [
        "rere",
        -10.40643446008512
      ],
      [
        "▁Oke",
        -10.407762043674632
      ],
      [
        "elo",
        -10.408938025662174
      ],
      [
        "▁Ààrẹ",
        -10.409132848955522
      ],
      [
        "▁ọjà",
        -10.40941997454187
      ],
      [
        "▁ire",
        -10.409455646038047
      ],
      [
        "▁Ṣiṣẹ",
        -10.409842907086905
      ],
      [
        "▁nfun",
        -10.409882067211726
      ],
      [
        "▁Line",
        -10.410815727614768
      ],
      [
        "milionu",
        -10.411589529429992
      ],
      [
        "▁IBI",
        -10.41255341679538
      ],
      [
        "▁eleyi",
        -10.413043185170675
      ],
      [
        "▁kojú",
        -10.413483071342917
      ],
      [
        "▁ipilẹṣẹ",
        -10.413506868255272
      ],
      [
        "devo",
        -10.41363167062698
      ],
      [
        "bà",
        -10.413827875785636
      ],
      [
        "dagbasoke",
        -10.41388134255235
      ],
      [
        "▁àwon",
        -10.414471461089718
      ],
      [
        "▁ìler",
        -10.415144686738
      ],
      [
        "▁ṣeeṣe",
        -10.415244885633562
      ],
      [
        "za",
        -10.415607383710324
      ],
      [
        "še",
        -10.416104941929758
      ],
      [
        "ọ̀nà",
        -10.416475261890213
      ],
      [
        "▁nìṣ",
        -10.416827470774573
      ],
      [
        "▁fọkàn",
        -10.41713812122062
      ],
      [
        "▁ariwo",
        -10.417213511977106
      ],
      [
        "▁yo",
        -10.417422344677828
      ],
      [
        "ùúrù",
        -10.417506751093466
      ],
      [
        "▁Lilo",
        -10.41768445802141
      ],
      [
        "▁ológun",
        -10.4177240422679
      ],
      [
        "▁tilẹ̀",
        -10.417759791911006
      ],
      [
        "▁idahun",
        -10.418409329565293
      ],
      [
        "▁ajọṣepọ",
        -10.41901088236078
      ],
      [
        "▁ọlọ́pà",
        -10.419571810209082
      ],
      [
        "▁Go",
        -10.419809911978312
      ],
      [
        "▁àsọté",
        -10.420303492513783
      ],
      [
        "▁National",
        -10.4209486345588
      ],
      [
        "▁not",
        -10.421128298057736
      ],
      [
        "▁dajudaju",
        -10.421600468993258
      ],
      [
        "▁imoriri",
        -10.422015763154818
      ],
      [
        "oju",
        -10.422195889705655
      ],
      [
        "▁Ami",
        -10.422685712216431
      ],
      [
        "▁ìmọ",
        -10.422796127471711
      ],
      [
        "▁tàwọ",
        -10.422928626525138
      ],
      [
        "reti",
        -10.423125076972184
      ],
      [
        "▁ree",
        -10.424316986546684
      ],
      [
        "▁dojú",
        -10.425275871085123
      ],
      [
        "▁lẹẹkansi",
        -10.4261038048663
      ],
      [
        "▁ibè",
        -10.42647703011281
      ],
      [
        "ire",
        -10.4270345906505
      ],
      [
        "▁Sa",
        -10.42741802338875
      ],
      [
        "▁Èṣù",
        -10.427567807864769
      ],
      [
        "▁alẹ",
        -10.427665913022512
      ],
      [
        "▁Ifihan",
        -10.428113759654345
      ],
      [
        "▁oniṣowo",
        -10.428137814956544
      ],
      [
        "▁February",
        -10.42941993073503
      ],
      [
        "▁keje",
        -10.42954364772366
      ],
      [
        "▁agbẹjọr",
        -10.429724265308558
      ],
      [
        "Í",
        -10.42986611707595
      ],
      [
        "▁niwon",
        -10.429963857780766
      ],
      [
        "▁anfaani",
        -10.430048385709274
      ],
      [
        "lopin",
        -10.431578510297204
      ],
      [
        "▁okuta",
        -10.431653185328484
      ],
      [
        "▁Ará",
        -10.433318438439574
      ],
      [
        "▁Bati",
        -10.433458890998477
      ],
      [
        "kàn",
        -10.43547488878275
      ],
      [
        "▁Railway",
        -10.436876494560403
      ],
      [
        "▁igbagbọ",
        -10.437006926969032
      ],
      [
        "▁ìkẹ",
        -10.437241790755088
      ],
      [
        "▁Lár",
        -10.437856816039384
      ],
      [
        "▁ẹṣẹ",
        -10.438346709084756
      ],
      [
        "rè",
        -10.438906880516008
      ],
      [
        "▁kasino",
        -10.43926942075921
      ],
      [
        "▁Iṣé",
        -10.439363895210809
      ],
      [
        "▁He",
        -10.4396911427037
      ],
      [
        "▁Sam",
        -10.439903696535966
      ],
      [
        "hùn",
        -10.439920227834229
      ],
      [
        "▁Lẹ",
        -10.440835143675976
      ],
      [
        "▁jlo",
        -10.440963760784506
      ],
      [
        "▁dokita",
        -10.441159741701735
      ],
      [
        "▁àlàyé",
        -10.441806378356318
      ],
      [
        "▁lasan",
        -10.44229544630386
      ],
      [
        "▁iseda",
        -10.44244340087345
      ],
      [
        "▁cheat",
        -10.44250451757772
      ],
      [
        "▁Paul",
        -10.442992975408416
      ],
      [
        "▁Ṣaaju",
        -10.443067695009685
      ],
      [
        "▁Makinde",
        -10.443955244673765
      ],
      [
        "ẹ̀mí",
        -10.444672836901116
      ],
      [
        "ọdun",
        -10.445148844967044
      ],
      [
        "▁Ìwọ",
        -10.446004784791494
      ],
      [
        "▁lorilẹede",
        -10.447019298686264
      ],
      [
        "▁yanju",
        -10.448632578428557
      ],
      [
        "▁dopo",
        -10.449448462170796
      ],
      [
        "▁Peter",
        -10.449635575251476
      ],
      [
        "dukia",
        -10.450145174572716
      ],
      [
        "onú",
        -10.451592332549186
      ],
      [
        "▁àsọ",
        -10.451993103816298
      ],
      [
        "ohun",
        -10.451994547929804
      ],
      [
        "▁Ekiti",
        -10.453770138365837
      ],
      [
        "▁osise",
        -10.455390514387192
      ],
      [
        "▁Aje",
        -10.455611634728395
      ],
      [
        "▁biọ",
        -10.456490260094752
      ],
      [
        "▁Ìṣ",
        -10.456980068693497
      ],
      [
        "▁Ìlú",
        -10.458002925831272
      ],
      [
        "▁delẹ",
        -10.45810230166343
      ],
      [
        "▁Play",
        -10.458318528974988
      ],
      [
        "fu",
        -10.45836240667768
      ],
      [
        "▁iṣeto",
        -10.458557010428343
      ],
      [
        "▁púpọ̀",
        -10.459617108606103
      ],
      [
        "▁Ga",
        -10.459755246708642
      ],
      [
        "▁didun",
        -10.461619075947658
      ],
      [
        "▁sopọ",
        -10.461664629718936
      ],
      [
        "▁iwọde",
        -10.46181227691348
      ],
      [
        "▁Osun",
        -10.462205672328787
      ],
      [
        "▁yàtọ̀",
        -10.462567958346511
      ],
      [
        "▁Màríà",
        -10.464479592402707
      ],
      [
        "▁azọ́n",
        -10.464862717868542
      ],
      [
        "sun",
        -10.465450215314794
      ],
      [
        "▁papọ",
        -10.466193676481772
      ],
      [
        "▁Martin",
        -10.466303685224396
      ],
      [
        "▁Vi",
        -10.470363045766284
      ],
      [
        "ilẹ",
        -10.472380810205378
      ],
      [
        "▁òde",
        -10.47353428022895
      ],
      [
        "fúnni",
        -10.473580943327852
      ],
      [
        "▁lásán",
        -10.47519205660581
      ],
      [
        "▁funni",
        -10.47597590745703
      ],
      [
        "▁jẹun",
        -10.476034333071633
      ],
      [
        "▁Kẹrin",
        -10.476822708152742
      ],
      [
        "▁dari",
        -10.4773049888351
      ],
      [
        "▁USB",
        -10.477523019755228
      ],
      [
        "ayé",
        -10.47771558742838
      ],
      [
        "▁ẹgbè",
        -10.4779730887772
      ],
      [
        "▁itẹw",
        -10.478386519434256
      ],
      [
        "▁itura",
        -10.478511058581727
      ],
      [
        "▁ìṣe",
        -10.478728440105105
      ],
      [
        "▁HD",
        -10.478746372321169
      ],
      [
        "fà",
        -10.48028141439991
      ],
      [
        "▁àsìkò",
        -10.480545717844802
      ],
      [
        "▁oniru",
        -10.48117606369767
      ],
      [
        "▁Bursa",
        -10.481867214011697
      ],
      [
        "mọ́",
        -10.482782438851103
      ],
      [
        "dopọ",
        -10.483030865296955
      ],
      [
        "▁taun",
        -10.48348255789924
      ],
      [
        "▁Agbègbè",
        -10.483803891850352
      ],
      [
        "▁Ṣùgbọ́",
        -10.484269092208624
      ],
      [
        "▁irọ",
        -10.485338528425896
      ],
      [
        "▁Eyin",
        -10.485612262816856
      ],
      [
        "ger",
        -10.485921955753165
      ],
      [
        "▁ọṣọ",
        -10.4864359810224
      ],
      [
        "▁gbogbogbo",
        -10.486444902948293
      ],
      [
        "▁yise",
        -10.486712924418038
      ],
      [
        "▁Ọja",
        -10.486782687814005
      ],
      [
        "▁bọ̀",
        -10.486813918751512
      ],
      [
        "▁Íjíbítì",
        -10.486914082760023
      ],
      [
        "our",
        -10.4870032379906
      ],
      [
        "▁àgbáyé",
        -10.48741722072391
      ],
      [
        "▁àárín",
        -10.487582626852928
      ],
      [
        "▁Iwadi",
        -10.488040321554518
      ],
      [
        "▁aké",
        -10.488143168816189
      ],
      [
        "▁Dokita",
        -10.48972491800214
      ],
      [
        "▁Lagos",
        -10.49067036049885
      ],
      [
        "▁tọka",
        -10.49200951808847
      ],
      [
        "▁koja",
        -10.49242895432742
      ],
      [
        "▁Japan",
        -10.49246599279304
      ],
      [
        "ise",
        -10.49383069680444
      ],
      [
        "wádìí",
        -10.494159456625756
      ],
      [
        "eli",
        -10.494523570648433
      ],
      [
        "▁irora",
        -10.494705445227812
      ],
      [
        "▁akitiyan",
        -10.495074002467293
      ],
      [
        "▁Párádís",
        -10.496347372475164
      ],
      [
        "▁ỌJỌ",
        -10.496727575776298
      ],
      [
        "▁Iṣakoso",
        -10.496854967511954
      ],
      [
        "▁OHUN",
        -10.49700165936029
      ],
      [
        "MÁA",
        -10.497681855528274
      ],
      [
        "▁sú",
        -10.4983972481163
      ],
      [
        "kún",
        -10.49889704537152
      ],
      [
        "▁igun",
        -10.500281964581502
      ],
      [
        "▁jakejado",
        -10.500324987467105
      ],
      [
        "▁ìbè",
        -10.501240027605958
      ],
      [
        "▁Gbe",
        -10.501589962467817
      ],
      [
        "íìsì",
        -10.501910406050788
      ],
      [
        "▁dohia",
        -10.503360863818616
      ],
      [
        "▁Ofin",
        -10.503396336325858
      ],
      [
        "▁Naw",
        -10.504497411318486
      ],
      [
        "pọn",
        -10.504794604577553
      ],
      [
        "▁Ǹjẹ",
        -10.505539506689471
      ],
      [
        "▁France",
        -10.505614499906
      ],
      [
        "eptember",
        -10.505943528091809
      ],
      [
        "▁lee",
        -10.506307279750647
      ],
      [
        "yanu",
        -10.506408969686454
      ],
      [
        "▁bọ́",
        -10.506421504055744
      ],
      [
        "▁Orukọ",
        -10.50675208122482
      ],
      [
        "nọmba",
        -10.507572923713392
      ],
      [
        "ìyanu",
        -10.50838114594476
      ],
      [
        "▁olóòótọ",
        -10.508895565595706
      ],
      [
        "ity",
        -10.509213531130245
      ],
      [
        "▁imudojuiwọn",
        -10.509354430783834
      ],
      [
        "▁Itọsọna",
        -10.50935714284369
      ],
      [
        "▁àpilẹ̀kọ",
        -10.50935893455829
      ],
      [
        "▁ibile",
        -10.509935962347182
      ],
      [
        "▁ololufẹ",
        -10.511378607741802
      ],
      [
        "▁ọlá",
        -10.511546079328696
      ],
      [
        "yara",
        -10.511756708276902
      ],
      [
        "▁Ikẹkọ",
        -10.512050170665232
      ],
      [
        "wọ́",
        -10.512373060318408
      ],
      [
        "▁ibalopọ",
        -10.51241975921833
      ],
      [
        "▁ẹlẹgbẹ",
        -10.5128043836197
      ],
      [
        "▁iranṣẹ",
        -10.513043352970364
      ],
      [
        "▁Wọ",
        -10.513223277820964
      ],
      [
        "ṣìṣe",
        -10.514282190458962
      ],
      [
        "▁Ebun",
        -10.514939087185702
      ],
      [
        "▁alabapin",
        -10.515091272258932
      ],
      [
        "▁eleven",
        -10.515430576262746
      ],
      [
        "▁gaju",
        -10.51605854772786
      ],
      [
        "▁pà",
        -10.517061849229757
      ],
      [
        "▁síl",
        -10.51726045176849
      ],
      [
        "▁alagbara",
        -10.517462460720282
      ],
      [
        "▁mẹjọ",
        -10.51768090993506
      ],
      [
        "▁mọlẹbi",
        -10.518123461608257
      ],
      [
        "▁wúl",
        -10.51821029734371
      ],
      [
        "▁yèd",
        -10.51867624509467
      ],
      [
        "ọrun",
        -10.51996153136433
      ],
      [
        "▁Webtalk",
        -10.5200097317403
      ],
      [
        "▁lẹwa",
        -10.52019426009699
      ],
      [
        "▁Já",
        -10.52041014808734
      ],
      [
        "▁mita",
        -10.52073090556632
      ],
      [
        "ẹ́yìn",
        -10.520867697236948
      ],
      [
        "▁Àpẹẹr",
        -10.521042419840596
      ],
      [
        "▁jàn",
        -10.521082104190311
      ],
      [
        "jókòó",
        -10.52222566540362
      ],
      [
        "▁oloro",
        -10.522557618039157
      ],
      [
        "duta",
        -10.52291633629892
      ],
      [
        "kiyesi",
        -10.523054840336975
      ],
      [
        "men",
        -10.523073046602432
      ],
      [
        "▁fifa",
        -10.523657027180612
      ],
      [
        "He",
        -10.523739493797674
      ],
      [
        "▁Ọ̀",
        -10.524719588424777
      ],
      [
        "▁ojutu",
        -10.525427587533088
      ],
      [
        "▁pọn",
        -10.525736194412248
      ],
      [
        "▁fere",
        -10.52574969252856
      ],
      [
        "▁ṣubu",
        -10.52615104526178
      ],
      [
        "▁Live",
        -10.526428746821749
      ],
      [
        "▁òmìnir",
        -10.526768395287458
      ],
      [
        "▁Ab",
        -10.527618977751562
      ],
      [
        "▁Up",
        -10.527940187873444
      ],
      [
        "▁Ji",
        -10.52829169166998
      ],
      [
        "íye",
        -10.528350057336752
      ],
      [
        "▁Te",
        -10.531121564307544
      ],
      [
        "▁yòókù",
        -10.531288718771377
      ],
      [
        "sùn",
        -10.533465416167813
      ],
      [
        "ẹ̀ṣẹ̀",
        -10.534713760661646
      ],
      [
        "▁iba",
        -10.535256745839147
      ],
      [
        "▁Rí",
        -10.535475154310976
      ],
      [
        "▁àpọ́sít",
        -10.537578612303893
      ],
      [
        "▁kór",
        -10.537617723325408
      ],
      [
        "▁ikọlu",
        -10.537638188424264
      ],
      [
        "▁ze",
        -10.538147898214929
      ],
      [
        "Olu",
        -10.538240259475726
      ],
      [
        "▁Jù",
        -10.53848733049023
      ],
      [
        "▁fìdí",
        -10.539065409778347
      ],
      [
        "▁péré",
        -10.539138049745468
      ],
      [
        "▁Aṣayan",
        -10.54024228477412
      ],
      [
        "▁Síbẹ̀",
        -10.541146988362984
      ],
      [
        "▁Egipti",
        -10.54116555464426
      ],
      [
        "▁iwo",
        -10.54141166408384
      ],
      [
        "▁ọ̀dọ́",
        -10.541548070197289
      ],
      [
        "▁àyíká",
        -10.542234363142407
      ],
      [
        "▁ọgọ́rù",
        -10.5424564086242
      ],
      [
        "shi",
        -10.542478463657496
      ],
      [
        "▁akọọlẹ",
        -10.543406976315064
      ],
      [
        "▁lábẹ́",
        -10.543986271813498
      ],
      [
        "▁àním",
        -10.544724122990097
      ],
      [
        "▁àbí",
        -10.545051212692863
      ],
      [
        "huga",
        -10.54527748514024
      ],
      [
        "ex",
        -10.546880217667873
      ],
      [
        "▁Ipo",
        -10.547792586786253
      ],
      [
        "ı",
        -10.547901058707474
      ],
      [
        "▁Ẹka",
        -10.54839487304066
      ],
      [
        "▁Pé",
        -10.548688387613142
      ],
      [
        "▁ṣò",
        -10.548797539080134
      ],
      [
        "▁Ibo",
        -10.549024964546732
      ],
      [
        "▁ẹwà",
        -10.549059758599268
      ],
      [
        "▁kinni",
        -10.549179742892374
      ],
      [
        "▁pariwo",
        -10.549646052518192
      ],
      [
        "▁Ẹkọ",
        -10.54989602759998
      ],
      [
        "ker",
        -10.551517225995294
      ],
      [
        "▁ìrè",
        -10.55163936931927
      ],
      [
        "▁Islam",
        -10.552353900794463
      ],
      [
        "▁sipo",
        -10.552387612412108
      ],
      [
        "Mátí",
        -10.552836085380385
      ],
      [
        "▁alaṣẹ",
        -10.553526850669332
      ],
      [
        "▁àkọ",
        -10.553609332124104
      ],
      [
        "▁Ìbílẹ",
        -10.553703672661594
      ],
      [
        "▁lọdọ",
        -10.55458652078702
      ],
      [
        "▁ìránṣẹ́",
        -10.555092537152325
      ],
      [
        "▁lohun",
        -10.555383031576872
      ],
      [
        "▁gá",
        -10.555617590197418
      ],
      [
        "▁Mose",
        -10.555920933547656
      ],
      [
        "àárín",
        -10.556145357304162
      ],
      [
        "▁àgbàlagb",
        -10.556366215687238
      ],
      [
        "▁engine",
        -10.556378457576502
      ],
      [
        "▁tọrọ",
        -10.55740394711871
      ],
      [
        "▁Wà",
        -10.557551157503998
      ],
      [
        "▁lédè",
        -10.558232792202256
      ],
      [
        "▁áńgé",
        -10.55843707011044
      ],
      [
        "▁Nobel",
        -10.55847764063218
      ],
      [
        "▁ẹrù",
        -10.558488256300231
      ],
      [
        "▁yago",
        -10.558524880665589
      ],
      [
        "▁post",
        -10.558672857755113
      ],
      [
        "▁su",
        -10.558897414626784
      ],
      [
        "▁oríṣiríṣ",
        -10.559115322631447
      ],
      [
        "▁wàhá",
        -10.559154677363214
      ],
      [
        "idi",
        -10.559578692869517
      ],
      [
        "ber",
        -10.559987337866348
      ],
      [
        "▁Games",
        -10.56005103127389
      ],
      [
        "▁Islaeli",
        -10.560585847193614
      ],
      [
        "▁pá",
        -10.561348246897444
      ],
      [
        "▁idaji",
        -10.562063105459169
      ],
      [
        "ìsọfúnni",
        -10.562231789408049
      ],
      [
        "▁James",
        -10.562741055101233
      ],
      [
        "▁titobi",
        -10.563469430171043
      ],
      [
        "▁lailai",
        -10.564359990518671
      ],
      [
        "▁ifiwe",
        -10.564942281895275
      ],
      [
        "▁Loni",
        -10.565343407469769
      ],
      [
        "▁Bitcoin",
        -10.566934127104624
      ],
      [
        "jé",
        -10.567006643768856
      ],
      [
        "ler",
        -10.567043493264013
      ],
      [
        "▁idunnu",
        -10.567187256457348
      ],
      [
        "eri",
        -10.569245212959077
      ],
      [
        "▁Etẹw",
        -10.56976313968039
      ],
      [
        "▁Ṣi",
        -10.57033475033767
      ],
      [
        "akọọlẹ",
        -10.570557469094885
      ],
      [
        "▁alábòójú",
        -10.570724979119673
      ],
      [
        "▁America",
        -10.570934760206564
      ],
      [
        "▁olorin",
        -10.571783838152456
      ],
      [
        "Link",
        -10.572710807882345
      ],
      [
        "▁LE",
        -10.57288374946599
      ],
      [
        "▁iyalẹnu",
        -10.573018644775862
      ],
      [
        "▁Post",
        -10.573223113739282
      ],
      [
        "▁fíìm",
        -10.573259841186749
      ],
      [
        "▁Jerúsálé",
        -10.573409953553
      ],
      [
        "hu",
        -10.573684795348532
      ],
      [
        "▁Kẹta",
        -10.574021817389244
      ],
      [
        "▁dupẹ",
        -10.57451822796124
      ],
      [
        "▁bawo",
        -10.57461644782385
      ],
      [
        "va",
        -10.575303474021611
      ],
      [
        "▁Wá",
        -10.575318350021089
      ],
      [
        "▁pro",
        -10.575637058445334
      ],
      [
        "▁Èlí",
        -10.57610499807118
      ],
      [
        "▁oloogb",
        -10.576519582330544
      ],
      [
        "deji",
        -10.577024645775754
      ],
      [
        "ü",
        -10.577054829626729
      ],
      [
        "▁banki",
        -10.577092398174823
      ],
      [
        "efe",
        -10.577773799468195
      ],
      [
        "▁jinl",
        -10.57789972095966
      ],
      [
        "lọsu",
        -10.577983108065308
      ],
      [
        "▁ẹtan",
        -10.57862746243784
      ],
      [
        "▁Germany",
        -10.579852569328333
      ],
      [
        "▁ogbon",
        -10.58058084832358
      ],
      [
        "▁ọlọpa",
        -10.581216158150324
      ],
      [
        "▁Itọju",
        -10.581938723856885
      ],
      [
        "▁yiyan",
        -10.582202154912428
      ],
      [
        "▁Real",
        -10.582299363752872
      ],
      [
        "▁Ikú",
        -10.582672248965263
      ],
      [
        "▁ìpínlè",
        -10.582744841119936
      ],
      [
        "▁Super",
        -10.583311848552873
      ],
      [
        "ntan",
        -10.583456561963498
      ],
      [
        "▁Mayor",
        -10.583769895125322
      ],
      [
        "▁keke",
        -10.584644104858674
      ],
      [
        "kù",
        -10.584654501354434
      ],
      [
        "▁Obìnrin",
        -10.58512675821384
      ],
      [
        "▁plọn",
        -10.585357800705902
      ],
      [
        "▁Tun",
        -10.585402907963797
      ],
      [
        "Ş",
        -10.586559584229214
      ],
      [
        "fé",
        -10.587136295787648
      ],
      [
        "▁College",
        -10.587490912729876
      ],
      [
        "▁tẹ́",
        -10.587866702882504
      ],
      [
        "▁adugbo",
        -10.588252176938951
      ],
      [
        "▁kẹ́",
        -10.588299243743077
      ],
      [
        "▁Gè",
        -10.590195696191405
      ],
      [
        "ẹnu",
        -10.591539419915666
      ],
      [
        "ìṣó",
        -10.591718406709262
      ],
      [
        "▁MI",
        -10.59244764546975
      ],
      [
        "▁rẹpẹtẹ",
        -10.59280834478373
      ],
      [
        "igi",
        -10.59314580651118
      ],
      [
        "ojuami",
        -10.593162177151612
      ],
      [
        "▁Ojo",
        -10.59337870963922
      ],
      [
        "RA",
        -10.593756943071275
      ],
      [
        "▁Bibel",
        -10.593824076513902
      ],
      [
        "▁ẹ̀rọ",
        -10.594224243723136
      ],
      [
        "gbakeji",
        -10.594322335988831
      ],
      [
        "soke",
        -10.594973467616825
      ],
      [
        "▁ẹkun",
        -10.595506342143407
      ],
      [
        "▁apapo",
        -10.595569660148932
      ],
      [
        "▁gbigbọ",
        -10.596305849415394
      ],
      [
        "́sìn",
        -10.5972124330591
      ],
      [
        "▁Lẹhinna",
        -10.5972465165751
      ],
      [
        "▁ailera",
        -10.597367662630356
      ],
      [
        "▁bẹbẹ",
        -10.597478710244731
      ],
      [
        "▁yọrí",
        -10.597691197916244
      ],
      [
        "▁kéde",
        -10.59773813282028
      ],
      [
        "▁Njẹ",
        -10.598839385572605
      ],
      [
        "▁ṣáá",
        -10.598949103888494
      ],
      [
        "▁Brazil",
        -10.599068411728087
      ],
      [
        "▁Hi",
        -10.599380051907564
      ],
      [
        "Fi",
        -10.599547504432252
      ],
      [
        "yín",
        -10.600308465208048
      ],
      [
        "▁patako",
        -10.600323353979867
      ],
      [
        "ónì",
        -10.601189579788446
      ],
      [
        "mánì",
        -10.601967209892052
      ],
      [
        "▁ahọlu",
        -10.602151541592974
      ],
      [
        "▁meta",
        -10.602379751612402
      ],
      [
        "riaye",
        -10.60267707057792
      ],
      [
        "ver",
        -10.60432503697863
      ],
      [
        "▁your",
        -10.604783764479269
      ],
      [
        "▁ijo",
        -10.60500669242394
      ],
      [
        "▁oniṣẹ",
        -10.605325902858718
      ],
      [
        "▁Broadcast",
        -10.605889775867674
      ],
      [
        "▁Nkan",
        -10.605916596896758
      ],
      [
        "fihàn",
        -10.60686643158239
      ],
      [
        "▁Bábílón",
        -10.609075517800337
      ],
      [
        "▁Car",
        -10.6100602794419
      ],
      [
        "▁báwọn",
        -10.610608594483494
      ],
      [
        "▁ìlà",
        -10.610614670039215
      ],
      [
        "útù",
        -10.611103274978928
      ],
      [
        "▁hùn",
        -10.611384532757064
      ],
      [
        "▁We",
        -10.612000484795928
      ],
      [
        "▁Bank",
        -10.612469134794196
      ],
      [
        "▁Dr",
        -10.612829078551894
      ],
      [
        "▁eka",
        -10.613497847569205
      ],
      [
        "▁Èèyàn",
        -10.613645097132284
      ],
      [
        "inu",
        -10.614095374697024
      ],
      [
        "▁Bill",
        -10.614883893531127
      ],
      [
        "egbọn",
        -10.61504778589232
      ],
      [
        "cu",
        -10.616293227472127
      ],
      [
        "ìgboyà",
        -10.616465151343224
      ],
      [
        "▁pàṣẹ",
        -10.6169314741746
      ],
      [
        "▁idojukọ",
        -10.617428323782
      ],
      [
        "▁Afrika",
        -10.617649337984668
      ],
      [
        "▁agbe",
        -10.61789069002872
      ],
      [
        "▁mẹwa",
        -10.619073113581605
      ],
      [
        "▁àǹfààn",
        -10.6196355135611
      ],
      [
        "ọdún",
        -10.619787904393627
      ],
      [
        "▁jìnnà",
        -10.621118519887911
      ],
      [
        "▁aseyo",
        -10.62351446726512
      ],
      [
        "Òwe",
        -10.623874688009112
      ],
      [
        "▁adajọ",
        -10.62464391862143
      ],
      [
        "▁Nó",
        -10.62469491566237
      ],
      [
        "bar",
        -10.624703657482437
      ],
      [
        "▁app",
        -10.624770693496751
      ],
      [
        "▁November",
        -10.625307148306431
      ],
      [
        "▁Next",
        -10.625435602818593
      ],
      [
        "▁Muhammadu",
        -10.626151134821535
      ],
      [
        "▁Ibile",
        -10.62681927070167
      ],
      [
        "▁fọwọ",
        -10.627058998761129
      ],
      [
        "▁Ajọ",
        -10.627315801217746
      ],
      [
        "▁kíkún",
        -10.627544190995293
      ],
      [
        "Q",
        -10.627843482593962
      ],
      [
        "ally",
        -10.627923067920472
      ],
      [
        "▁alaisa",
        -10.629486661616593
      ],
      [
        "▁ìkànnì",
        -10.629825618865883
      ],
      [
        "▁Ọjọgbọn",
        -10.629970412846044
      ],
      [
        "▁afi",
        -10.630421540399333
      ],
      [
        "▁Éf",
        -10.630837263254314
      ],
      [
        "▁whenu",
        -10.63111344734242
      ],
      [
        "▁apejọ",
        -10.631645754747163
      ],
      [
        "isakoso",
        -10.631676021821026
      ],
      [
        "▁lapap",
        -10.631823766116014
      ],
      [
        "▁devo",
        -10.632284900623889
      ],
      [
        "▁Mès",
        -10.632742261204491
      ],
      [
        "▁ayafi",
        -10.633403156760078
      ],
      [
        "▁àdúgbò",
        -10.633905884941557
      ],
      [
        "sípò",
        -10.634173742676746
      ],
      [
        "nda",
        -10.63443178705797
      ],
      [
        "▁ìní",
        -10.634597111150326
      ],
      [
        "▁nitorinaa",
        -10.634762645656512
      ],
      [
        "▁ẹlẹsẹ",
        -10.634979374504162
      ],
      [
        "▁Àjọ",
        -10.63525304101368
      ],
      [
        "▁Oro",
        -10.635343014238952
      ],
      [
        "▁mẹmẹ",
        -10.635845855553308
      ],
      [
        "out",
        -10.63608855369337
      ],
      [
        "▁nukun",
        -10.636449558081557
      ],
      [
        "▁fetí",
        -10.637510967046214
      ],
      [
        "mer",
        -10.638586057390814
      ],
      [
        "▁atẹgun",
        -10.638812164050664
      ],
      [
        "▁iro",
        -10.638855243478147
      ],
      [
        "▁ikole",
        -10.638980729754223
      ],
      [
        "▁BÍ",
        -10.63957350497862
      ],
      [
        "bikibi",
        -10.63964382178404
      ],
      [
        "▁arin",
        -10.64003543141078
      ],
      [
        "vo",
        -10.640909606902028
      ],
      [
        "▁asọtẹlẹ",
        -10.641037431513237
      ],
      [
        "▁nse",
        -10.64115977024252
      ],
      [
        "▁tipa",
        -10.642512099386463
      ],
      [
        "▁kirẹditi",
        -10.64299839974761
      ],
      [
        "▁sísọ",
        -10.644001391953145
      ],
      [
        "▁aiye",
        -10.644630106764186
      ],
      [
        "▁this",
        -10.645003357842626
      ],
      [
        "Bi",
        -10.645007311047372
      ],
      [
        "▁fifọ",
        -10.645105044698203
      ],
      [
        "ẹsè",
        -10.645276405869817
      ],
      [
        "▁ibugbe",
        -10.64543185704926
      ],
      [
        "▁Papa",
        -10.6455570734279
      ],
      [
        "▁niṣe",
        -10.64564731714532
      ],
      [
        "midroll",
        -10.647042383662704
      ],
      [
        "▁Yàtọ",
        -10.647649703377365
      ],
      [
        "▁pipa",
        -10.64797683354411
      ],
      [
        "▁ọta",
        -10.648070500248329
      ],
      [
        "▁Yoo",
        -10.64865468423023
      ],
      [
        "▁Chi",
        -10.649324841809976
      ],
      [
        "▁adura",
        -10.649975521104563
      ],
      [
        "▁agọ",
        -10.650514031749426
      ],
      [
        "▁ikọkọ",
        -10.65064646203603
      ],
      [
        "marvel",
        -10.650660745400709
      ],
      [
        "▁igbagbogbo",
        -10.650731917666471
      ],
      [
        "▁onimo",
        -10.65078397974889
      ],
      [
        "lar",
        -10.651108926732324
      ],
      [
        "▁pupo",
        -10.651572948113904
      ],
      [
        "▁Air",
        -10.652833966554056
      ],
      [
        "▁rà",
        -10.653479414317497
      ],
      [
        "▁Bẹẹni",
        -10.654051972135557
      ],
      [
        "▁Akin",
        -10.65451774889772
      ],
      [
        "▁ìmọ̀",
        -10.654559434890624
      ],
      [
        "▁Alaga",
        -10.654758967908538
      ],
      [
        "▁Rere",
        -10.655119956027995
      ],
      [
        "ṣìírí",
        -10.655182758552776
      ],
      [
        "ngàn",
        -10.655696669408291
      ],
      [
        "▁laipe",
        -10.655788933233096
      ],
      [
        "aji",
        -10.656113514667416
      ],
      [
        "▁gb",
        -10.656180365743374
      ],
      [
        "▁ìrírí",
        -10.658118278724665
      ],
      [
        "▁ẹgb",
        -10.658604848640518
      ],
      [
        "▁Tu",
        -10.659566839723915
      ],
      [
        "▁jẹwọ",
        -10.659986542618544
      ],
      [
        "▁mẹde",
        -10.66011969066273
      ],
      [
        "bẹrẹ",
        -10.660741032180546
      ],
      [
        "òrùn",
        -10.661748065872906
      ],
      [
        "akanṣe",
        -10.662007859924806
      ],
      [
        "▁ìpínrọ",
        -10.662139267915896
      ],
      [
        "mar",
        -10.66307051719581
      ],
      [
        "sha",
        -10.663091522187482
      ],
      [
        "gbọ",
        -10.663587021919671
      ],
      [
        "dù",
        -10.663685579415432
      ],
      [
        "▁ayọ",
        -10.663820697386768
      ],
      [
        "aanu",
        -10.66389316176861
      ],
      [
        "▁mẹ́rin",
        -10.663991401723838
      ],
      [
        "▁tayọ",
        -10.664047280008226
      ],
      [
        "▁iwuwo",
        -10.664193877957883
      ],
      [
        "▁ajinigbe",
        -10.664561031028285
      ],
      [
        "▁yòów",
        -10.664664637404758
      ],
      [
        "▁oloṣel",
        -10.665195262237704
      ],
      [
        "▁ijinlẹ",
        -10.665287887719904
      ],
      [
        "▁ṣoju",
        -10.66576345806392
      ],
      [
        "▁Ho",
        -10.665959503520527
      ],
      [
        "▁Ali",
        -10.666025793072157
      ],
      [
        "▁his",
        -10.666152779525662
      ],
      [
        "е",
        -10.667974356183556
      ],
      [
        "▁adirẹsi",
        -10.668378700632314
      ],
      [
        "▁Orí",
        -10.669069576799233
      ],
      [
        "▁tóbi",
        -10.669312155061812
      ],
      [
        "▁àwárí",
        -10.669321308385603
      ],
      [
        "orun",
        -10.669378880000536
      ],
      [
        "▁can",
        -10.669599592177567
      ],
      [
        "▁nitosi",
        -10.669723022303364
      ],
      [
        "▁ndun",
        -10.67090288905403
      ],
      [
        "▁olutọju",
        -10.671426196054297
      ],
      [
        "▁ngbe",
        -10.671716146341671
      ],
      [
        "▁Nu",
        -10.672734787864012
      ],
      [
        "ìwé",
        -10.672762767499762
      ],
      [
        "Sm",
        -10.67294947414058
      ],
      [
        "▁ṣiṣan",
        -10.673809075298893
      ],
      [
        "▁idinku",
        -10.673845670757654
      ],
      [
        "▁West",
        -10.674100081572252
      ],
      [
        "cm",
        -10.674242655607104
      ],
      [
        "▁ọmọbinri",
        -10.674354926439666
      ],
      [
        "kà",
        -10.676893735200196
      ],
      [
        "▁atẹ",
        -10.677181942287616
      ],
      [
        "▁Won",
        -10.677292430423243
      ],
      [
        "▁ìṣàkós",
        -10.677324907659528
      ],
      [
        "▁European",
        -10.677327195244462
      ],
      [
        "▁Iyẹn",
        -10.677645919831043
      ],
      [
        "tòsí",
        -10.678205396396102
      ],
      [
        "▁tímó",
        -10.67834080405381
      ],
      [
        "▁Mac",
        -10.67912612283646
      ],
      [
        "▁sinsẹ̀n",
        -10.679588108837711
      ],
      [
        "▁Party",
        -10.679618758201585
      ],
      [
        "šẹ",
        -10.679880347003884
      ],
      [
        "▁idaabobo",
        -10.680067415263146
      ],
      [
        "▁àpèjúw",
        -10.68039373060142
      ],
      [
        "▁ifijiṣẹ",
        -10.680594603566146
      ],
      [
        "▁Áfírík",
        -10.680594607110947
      ],
      [
        "niyanju",
        -10.680694577765324
      ],
      [
        "▁dile",
        -10.680726145787592
      ],
      [
        "▁asiwaju",
        -10.680756900544909
      ],
      [
        "▁pàtó",
        -10.68134450646207
      ],
      [
        "wọ̀n",
        -10.681612244449203
      ],
      [
[...]
